#version: 0.2
Ġ a
i n
Ġ t
r e
a t
Ġ c
o n
h e
e n
e r
Ġ s
a n
Ġ p
Ġ o
Ġ in
e s
a l
Ġa n
e l
o r
e d
Ġt he
t i
Ġ w
i s
r o
Ġ e
Ġo f
Ġan d
i t
in g
Ġ m
at i
i g
Ġ f
Ġ (
a r
i c
o u
Ġ d
re s
el l
Ġ b
a s
2 0
Ġa l
en t
Ġ Ġ
Ġc ell
Ġ P
Ġt o
Ġ l
Ġ 20
u m
ati on
a m
an c
o m
Ġt h
Ġe t
ou r
T I
. ,
Ġ h
e t
um our
Ġp ro
) .
u n
it h
i m
o t
l e
a c
Ġw ith
ĠP TI
Ġ C
u l
Ġ T
Ġ20 1
ti on
anc er
ig n
s i
o w
g en
v e
Ġ n
Ġa s
l y
Ġe x
u re
Ġ re
s e
Ġw e
Ġin f
Ġt umour
Ġs ign
t r
Ġs u
e c
Ġth at
Ġ I
Ġc ancer
u s
l am
at ed
Ġ im
lam m
i d
Ġcell s
u t
Ġinf lamm
i l
o l
t er
Ġf or
o c
at e
e v
he r
ig h
ro m
p res
m un
Ġ res
Ġ gen
u r
o s
y s
y p
Ġc on
o d
si on
i v
Ġim mun
at or
it y
a b
Ġwe re
ĠĠ ĠĠ
i f
i b
ati ent
c h
Ġ v
Ġs t
Ġsign at
a p
re d
a g
an t
Ġp atient
ti c
Ġf rom
Ġb y
a d
Ġ is
Ġc om
Ġex pres
al l
Ġa c
p l
q u
t e
r i
er s
m ent
Ġa re
in e
ti v
Ġw as
T he
Ġ on
o re
t s
ator y
â Ģ
Ġ M
Ġd at
Ġ 1
ev el
c e
Ġtumour s
Ġinflamm ation
is t
ig ure
r an
F igure
p on
al ys
Ġc l
o p
Ġexpres sion
Ġ N
a y
Ġo r
t her
Ġ S
Ġan alys
ĠĠ Ċ
d ing
Ġb e
p h
Ġsignat ure
Ġinflamm atory
Ġa d
p le
Ġimmun e
ation s
Ġh igh
Ġ us
at h
or s
ar k
t ed
Ġ g
Ġpro g
Ġin d
o g
a in
ic al
ĠC D
Ġ201 8
C B
Ġpatient s
Ġs h
in es
re l
Ġt yp
ĠI CB
Ġres pon
u p
Ġt ran
all ing
O X
Ġd e
i r
Ġas s
s t
Ġ un
Ġl evel
Ġsign alling
Ġgen e
f f
Ġ en
I n
or m
ti ve
p or
Ġtran s
u e
u c
u res
at es
Ġm od
Ġanalys is
re n
anc e
v er
as e
or rel
ou s
ĠC OX
y t
Ġ R
Ġs c
Ġb i
ar i
oc i
et w
Ġdat a
) ,
es s
if ic
el y
Ġh a
Ġv al
Ġcom p
c l
c ri
Ġth is
Ġsh ow
cri p
Ġd is
ac t
Ġ 0
Ġw h
d s
u d
o gen
Ġp ath
Ġan ti
Ġ20 20
Ġgen es
Ġlevel s
0 0
Ġin ter
t umour
Ġc orrel
Ġ201 9
ab le
Ġtrans crip
T h
d er
Ġp red
es t
Ġsu ch
he n
Ġn e
Ġass oci
Ġl ines
ĠT M
h ib
ou n
Ġm e
Ġha ve
N A
p ec
Ġ r
Ġsu b
ic h
F N
y m
Ġ B
Ġc h
ed i
is s
ro s
i es
n os
Ġsu r
ag e
Ġac tiv
Ġmod el
e p
l ow
Ġthe re
u es
Ġ H
Ġp an
al ly
Ġm et
Ġpred ic
Ġe v
om ark
âĢ Ļ
Ġt iss
Ġc o
Ġs am
Ġre g
C L
G E
in s
en ti
Ġprog nos
Ġtyp es
c ul
ig en
Ġm ut
if f
Ġd iff
Ġ D
Ġus ing
Ġbi omark
p er
Ġ âĢ
on g
Ġthe se
t ing
Ġ TI
ol og
Ġ he
Ġf act
2 1
e ren
o x
t h
Ġin hib
Ġrespon se
d e
g h
i k
Ġ A
Ġm ul
Ġpath w
f orm
s o
ĠĠĠĠ ĠĠĠĠ
Ġsignat ures
Ġ E
Ġs tr
ĠI FN
c ancer
Ġ 2
en ce
Ġo ur
Ġal so
ev er
iv al
igen ic
h igh
ro ph
il l
tumour igenic
e en
i tion
Ġ K
at ing
Ġn ot
Ġwh ich
ĠâĢ ĺ
Ġ F
Ġo ther
Ġl ow
Ġ20 21
pl es
e ar
Ġ it
or k
Ġb etw
as t
as et
Ġ20 0
ec t
Ġtiss ue
Ġbetw een
Ġ G
ac tion
Ġdiff eren
R C
a v
Ġ qu
in ical
ĠIFN g
Ġ 3
Ġ L
Ġp re
Ġf in
om ic
ac h
Ġ201 7
Ġst ud
ag es
Ġad d
ar y
Ġdat aset
v ival
Ġ W
Ġp l
Ġw he
Ġm ore
ac k
d uc
f i
m ot
u al
is tic
ent s
re g
en d
Ġp o
ati ve
ĠTM E
ros s
Ġsur vival
Ġfact ors
Ġ =
Ġp er
Ġm edi
Ġbiomark ers
RC C
is ed
Ġe ff
om a
ym ph
c RCC
f ore
Ġa b
Ġres ist
Ġcl inical
Ġval ues
Th is
Ġassoci ated
Ġinhib it
R A
o k
Ġ Ċ
he s
en si
Ġin cl
Ġcon s
W e
Ġa t
Ġp hen
tion al
ĠI L
Ġsam ples
Ġc an
ti m
ĠP D
ot yp
il tr
The se
Ġus ed
b l
res sion
Ġac ross
Ġmul ti
Ġfin ding
t o
Ġc cRCC
Ġh ow
por t
p ro
Ġm o
Ġm ay
Ġf e
Ġsu p
os t
ific ant
Ġphen otyp
a ys
o in
Ġ ro
Ġc yt
Ġs ec
Ġpro te
r ap
Ġd evel
Ġl ymph
om e
tr ins
oc yt
ator s
Ġinter action
Ġresist ance
Ġdevel op
b in
h an
v ed
Ġw ell
ar g
Ġl ine
Ġth an
ul ar
ow n
Ġg ro
Ġfinding s
trins ic
i p
i on
m on
Ġe ach
as ed
ow er
Ġprognos tic
c t
o res
ĠPTI high
Ġ201 5
oun d
ocyt es
e f
g g
l d
o id
in trinsic
Ġt re
an d
Ġpro mot
Ġn on
Ġex am
Ġcon t
Ġind ic
Ġme as
Ġmut ations
T o
p t
Ġc ar
an ti
Ġo ut
Ġin c
Ġsign ificant
igh t
Ġexpres s
Ġ u
Ġc he
Ġs el
Ġp ower
Ġb l
ot her
Ġinf iltr
ol low
iv id
Ġdis e
Ġwhe ther
F Î
d ers
e x
er m
ati c
ar ds
ple ment
Ġtyp e
Ġsc ores
Ġmodel s
RA S
a j
u ding
Ġ Figure
Ġ up
ic i
as s
le cul
ac roph
Ġcon tr
ogen ic
ĠTI L
Ġfe at
Ġdise ase
F or
X CL
c tion
c ess
i a
m an
Ġ201 6
iv er
Ġv ari
ivid ual
A s
t yp
Ġ 4
Ġ O
in ant
Ġp ar
Ġo ver
ou ld
ab l
Ġpredic tive
ik e
Ġpathw ay
Ġdifferen t
reg ul
Ġincl uding
o se
Ġa p
Ġp h
Ġf ollow
Ġd et
Ġcom bin
ce pt
ĠN K
etw ork
Ġshow n
Ġtranscrip t
ĠK RAS
o v
w ards
Ġ id
Ġthe ir
Ġthe rap
Ġb en
Ġto wards
Ġh as
Ġpro duc
Ġmo lecul
c ent
e u
Ġ 5
Ġ k
Ġ el
Ġt est
is e
ar d
um an
Ġn etwork
Ġind ividual
Ġde f
orm al
pec ific
enti al
Ġadd ition
fi ed
i z
u gh
Ġa m
he d
Ġal l
ĠĠ ĠĊ
ĠT C
arg et
H C
c om
en s
or t
is k
Ġm acroph
am et
Ġre f
se q
Ġres ul
Ġimmun ity
ad e
Ġbe en
Ġtranscrip tional
Ġmedi ators
E S
L A
g e
m s
en c
Ġin tr
ro ugh
ar ac
ou gh
Ġh uman
tiv ity
olog y
c in
f ul
i re
r u
Ġ y
Ġp res
Ġo b
Ġd own
ent ly
tion s
tiv ely
Ġcorrel ated
Ġactiv ity
Ġprognos is
Ġstud y
Ġmulti ple
Ġexam ple
Ġinc re
other ap
arac ter
A l
G A
R NA
a k
i ve
j us
o ver
s es
at ment
Ġs e
Ġs et
an g
Ġin to
ĠC XCL
Ġre m
The re
ĠTM B
Ġch aracter
ĠTI S
Ġpathw ays
Ġit s
ensi tivity
Ġsec re
Ġfeat ures
Ġid enti
a il
b er
l o
y n
re e
on al
Ġp ot
Ġd es
Ġpro cess
si ve
rom ot
ain ed
ari ate
end ent
Ġpo or
Ġdevelop ment
Ġmeas ure
1 2
v es
Ġc ol
an ds
al s
or y
Ġb ot
un d
Ġre cept
Ġsu gg
Ġim port
Ġcomp a
Ġsub typ
Ġpre v
Ġfollow ing
0 5
D R
c k
p romot
u tion
Ġt r
Ġt arget
el d
Ġthe n
ti l
Ġl ig
Ġl og
Ġth rough
Ġh ad
un ction
Ġ201 4
ut e
oc y
ĠM E
ĠR NA
Ġval ue
Ġdis c
Ġactiv ation
Ġdataset s
Ġinhibit ors
Ġgro up
plement ary
P GE
u b
in ed
at umour
Ġm y
ĠP GE
us ter
Ġimmun otherap
Ġac c
Ġanti gen
ever al
Ġeff ect
Ġsel ec
C s
G S
f y
m ark
º B
Ġm ec
om inant
Ġcancer s
Ġrespon ses
Ġun c
por tion
Ġreg ul
olog ical
Ġstr ati
oin t
FÎ ºB
Ġben ef
Ġintr atumour
promot ing
Ġmec han
i ous
m edi
n ot
in ib
el an
Ġw ill
Ġe ar
res s
Ġb ut
Ġth ose
Ġn um
Ġn ormal
Ġex t
Ġex per
Ġre l
ut roph
ur ther
Ġon c
Ġcl uster
Ġprog ression
00 0
Th us
Ġme an
Ġthere fore
Ġro le
Ġcar cin
Ġcontr ib
ocy te
Ġbenef it
utroph il
i al
r ic
in k
Ġc ap
Ġs p
el ine
is ation
it a
Ġd er
Ġh yp
Ġpro portion
le ar
Ġex tr
oc k
Ġst at
ĠN FÎºB
Ġad jus
up plementary
Ġstud ies
Ġper form
Ġcyt ok
aj or
Ġproduc tion
ĠTC GA
Ġmacroph ages
p ar
r am
in f
Ġw ork
ing le
oc al
ib ro
Ġhigh ly
ir st
ogen e
Ġcorrel ation
ep endent
Ġcons ist
ĠO S
Ġbot h
Ġintratumour al
A P
G F
p ear
Ġm an
Ġm ic
Ġm ajor
ain s
Ġsc ore
Ġmut ation
Ġphenotyp e
Ġche ck
Ġup regul
pear man
1 3
P E
e m
t re
Ġ V
Ġa g
Ġc al
on av
Ġw ould
Ġ201 2
ĠI n
Ġcon f
Ġde p
st re
Ġcomp ar
Ġne utrophil
Ġmet h
Ġev as
Ġco h
Ġreg ression
Ġstr ong
Ġqu es
Ġtranscript omic
Ġse qu
Ġimport ant
Ġcompa red
elan oma
Ġexper im
onav ita
* *
1 0
F PE
x t
Ġ U
Ġa r
at ely
Ġs ingle
ou t
Ġd ist
ot hes
Ġwith in
si tion
il ity
pres s
iv ed
op ul
Ġhe ter
Ġtre ated
Ġpromot e
Ġsignificant ly
Ġbl ock
Ġprev ious
ĠME K
Ġimmunotherap y
Ġmechan is
Ġhyp othes
Ġcal cul
stre am
S C
e w
o f
p oint
s er
u ous
he l
Ġs everal
Ġp ack
Ġp opul
Ġm ost
Ġd iver
Ġb as
Ġl ink
Ġh ig
Ġpro f
ĠPTI low
ĠC on
ĠC ancer
Ġgen er
ur ing
Ġcom mon
tiv ariate
Ġcl onal
Ġad v
Ġun ders
Ġshow ed
Ġprote in
Ġap pro
Ġlig ands
Ġgroup s
Ġonc ogenic
ibro bl
Ġmeth od
P D
P TI
b y
Ġ est
Ġt im
at ure
Ġin te
ou se
Ġb in
Ġto p
id ence
iv en
Ġst ates
Ġst age
ad ed
ĠM AP
Ġmet ast
ĠF FPE
Ġlymph ocytes
Ġtre atment
abl is
Ġmolecul ar
ru g
Ġcharacter istic
Ġsugg est
Ġsequ enc
Ġest ablis
2 5
S CL
r on
r im
s tr
w o
in uous
Ġp at
it e
it ch
Ġm on
Ġf irst
Ġd ire
ot ox
Ġ201 3
Ġre c
ter n
Ġassoci ation
Ġpan el
Ġab und
Ġphenotyp es
ion s
Ġexpress ed
ici ent
Ġtherap y
Ġresul ts
Ġob ser
Ġpot ential
Ġear ly
Ġcheck point
Ġpack age
otox ic
h ot
i qu
t an
Ġ 9
Ġt ri
Ġf unction
Ġcell ular
ĠC P
ĠN SCL
ĠS ensitivity
Ġhigh l
Ġprog ram
Ġind ependent
Ġpredic t
ĠĠĠĠĠĠĠĠ ĠĠĠĠĠĠĠĠ
ear ch
Ġcyt otoxic
Ġdef ined
RNA seq
Ġextr ac
Ġstat us
Ġcoh ort
Ġheter ogene
ĠMAP K
B y
g or
s pecific
Ġ -
Ġ ran
Ġt wo
Ġc ur
on e
Ġs ys
Ġs pec
es ts
ti es
Ġf ound
Ġd rug
ĠP ro
um ab
Ġpro l
Ġn od
Ġex pl
id e
Ġfor m
ab ol
te m
ĠM elanoma
Ġun der
Ġen d
Ġbiomark er
Ġhe al
Ġmul tivariate
Ġdifferen ti
There fore
Ġrecept ors
Ġadjus ted
Ġcalcul ated
Ġcharacteristic s
B onavita
C M
C R
h a
o ve
p os
u bl
w th
z er
es is
al ign
Ġan not
Ġf i
as ts
Ġl ocal
un g
Ġn o
Ġre qu
lam ed
pres ent
ab ly
if er
Ġshow ing
Ġne o
CL E
th ough
Ġadd ress
Ġwhe re
Ġpo si
Ġhow ever
Ġprote ins
Ġpower ful
Ġdet erm
Ġy et
Ġdown lo
Ġrem ains
Ġsubtyp es
Ġnum ber
Ġsp ati
Ġneutrophil s
ibrobl asts
ĠNSCL C
Ġsys tem
Ġdownlo aded
1 1
C on
I FN
M c
j ect
o od
o sition
t en
Ġc as
Ġs pecific
Ġp ubl
el oid
is on
ro l
Ġm ark
Ġf urther
ic ation
ell ular
ĠP T
Ġl ike
Ġth ree
Ġre por
ec h
Ġcon si
iv ers
qu ently
In de
hib it
Ġmet abol
Ġinhib ition
tim ul
Ġgro wth
Ġindic ate
Ġu til
Ġpres ence
Ġdist in
Ġdiver se
Ġhig her
Inde ed
1 8
A n
C D
O ur
b od
c r
l u
l ike
Î ³
Ġ es
Ġ ess
Ġo p
Ġin v
is ing
Ġl e
Ġl ung
le c
ec ts
ĠI HC
us t
Ġim ages
id ate
Ġst rom
tic al
all mark
ri or
Ġcl ass
op y
Ġanalys ed
ain ing
ren t
Ġcomp osition
ogen esis
Ġqu anti
Ġpl ot
fi eld
Ġu se
Ġinfiltr ation
Ġmolecul es
Ġam ong
Ġstrati fied
Ġconsist ent
Ġmechanis ms
Ġpopul ations
Ġadv anc
Ġdistin ct
Ġess ential
1 000
O n
T A
b r
c od
e ff
m a
s et
v ely
w ise
x is
Ġa v
Ġa ut
Ġc ent
Ġp rior
or d
Ġf ibroblasts
Ġd ys
as is
Ġal ter
Ġl ack
Ġh ist
et her
ot zer
ĠC h
ec ted
ur ine
os s
Ġcon ver
Ġv ia
rel ated
Ġtrans form
ĠR es
Ġanti bod
pec tive
Ġch ron
Ġtiss ues
av our
Ġincl ud
amet inib
Ġidenti fy
Ġmy eloid
medi ated
Ġcarcin oma
Ġcontrib ute
Ġtim e
Ġsequenc ing
itch field
Ġobser ved
cr ib
Ġchron ic
S upplementary
a ir
b ased
o ff
r y
r ich
t t
z ym
Ġa xis
Ġt erm
Ġs o
Ġs im
Ġin ves
es p
or ding
ti g
Ġm ain
Ġm align
Ġm urine
Ġd o
res t
ent al
Ġh allmark
Ġpro ject
ac e
ĠC ox
oc us
ĠĠĠĠ ĠĊ
Ġcom pon
pl ic
Ġgene tic
Ġen zym
Ġcorrel ate
oun t
Ġfact or
th y
de f
form atic
oin formatic
anti gen
Ġche m
com es
Ġpres ent
Ġprocess es
Ġmeasure ment
Ġunc lear
Ġcap able
Ġcytok ines
Ġman y
Ġupregul ated
Ġevas ion
Ġdire ct
Ġinves tig
5 3
7 4
C ancer
H ow
I S
S pearman
T LA
a re
f lamm
g er
i er
i red
l es
r ine
r iven
s on
s is
u ce
x im
in al
at her
en g
Ġp ip
Ġp rim
Ġan t
el i
el en
Ġthe sis
ti f
ro g
Ġe p
it her
Ġf re
Ġal gor
Ġl ik
Ġpro v
Ġre n
Ġgen omic
pl et
Ġon e
ĠN F
Ġg re
ical ly
Ġen rich
Ġtranscrip tion
Ġmet a
Ġreg ions
ĠE CM
ĠF DR
Ġ200 8
Ġqu al
Ġlymph ocyte
Ġline ar
Ġinfiltr ate
abl es
eu tic
Ġdes crib
Ġcol l
Ġlog istic
Ġperform ed
Ġpat tern
iqu e
Ġtri als
Ġprol ifer
Ġspati al
Ġalgor ith
A D
C A
F DR
I m
M ore
U C
Z elen
b le
c c
c es
d ominant
e g
f ication
g r
i e
i ed
t om
Ġ ill
Ġt ests
at er
Ġc D
on d
Ġs ol
Ġs iz
Ġw hen
Ġe ither
Ġf it
Ġf ac
Ġf ocus
ar n
as an
Ġl im
ation al
TI S
ĠT P
Ġex cl
Ġre t
tr ing
ec tion
Ġim p
ut es
ut ure
ol ution
pres sive
mun e
ĠĠĠĠ Ċ
ag on
pl as
pl ot
Ġ1 6
Ġ1 9
Ġde mon
Ġun ique
oci ated
Ġshow s
Ġcorrel ates
Ġne w
Ġme m
Ġsub set
Ġev ents
Ġco eff
Ġsam ple
Ġhe l
ĠW ES
ensi tive
Ġcont rol
Ġout comes
ass ociated
Ġaddition al
iz umab
Ġidenti fied
ail able
Ġsubtyp e
GF R
Ġprevious ly
Ġbas eline
Ġprof ound
Ġinte rest
tan ding
Ġ9 5
ĠCP I
Ġcur rent
br isk
Ġav ailable
Ġcent r
Ġalter ations
How ever
Ġpip eline
Ġant agon
Ġenrich ment
More over
Zelen ay
Ġdemon str
/ /
: //
C I
C NA
G re
G FÎ
I I
M P
N T
k i
l an
n ate
t al
t og
Ġ J
Ġa gg
Ġs ensitivity
Ġs yn
Ġs timul
an os
Ġin nate
ti t
ro ad
Ġe qu
Ġf our
Ġf il
Ġb ased
Ġl ong
Ġ201 0
Ġn ov
Ġre ve
ĠI D
us tr
il st
Ġimmun ogenic
atient s
Ġst ages
ap e
te in
ĠS upplementary
ath asan
Ġg r
Ġde ath
Ġen h
Ġsc RNAseq
Ġbi oinformatic
ari athasan
Ġch all
ĠH N
Ġco v
ĠD Cs
Ġlow er
Ġmedi an
Ġsup por
cent red
Ġel uc
ough t
ru it
Ġincre ased
Al though
Ġrecept or
Ġdisc over
Ġder ived
Ġcytok ine
inf lamed
tre ated
Ġques tion
Ġques tions
Ġexperim ental
Ġhypothes is
hel ial
Ġlink ed
Ġabund ance
Ġcas c
Ġrepor ted
ech n
ivers ity
Ġes tim
Ġstrom al
tt p
def icient
Ġchem ok
Ġren al
GFÎ ²
tog ether
anos tring
0 1
C h
C ol
E G
H R
M otzer
P H
m e
n on
s ki
t inuous
u ch
y ers
Ġ **
Ġt echn
re ad
Ġc oun
en e
er red
an i
an s
Ġp ut
Ġthe y
Ġw id
is h
is ts
it ro
Ġm at
Ġf avour
Ġd r
Ġd am
res pon
as es
as ing
as si
20 18
Ġto tal
Ġl ef
Ġl eu
Ġl oss
ĠT h
ĠT he
Ġn ec
Ġre present
tr ib
ec tive
il it
ol ved
ab or
ĠS pearman
ĠS CNA
Ġbe ing
Ġad ap
Ġind uc
ain st
Ġen ric
Ġen cod
Ġcomp r
Ġinter medi
der mot
Ġr ate
Ġactiv ated
Ġthere by
Ġev idence
ĠE x
duc ed
Ġeff ects
Ġab ility
Ġinhibit or
Ġmo tif
Ġsup press
Ġinteraction s
ex t
ici ents
Ġpar amet
Ġph ase
Ġcombin ed
Ġcombin ation
Ġincre ase
Ġacc ording
Ġselec ted
Ġext ent
Ġcluster s
Ġmic e
Ġmic ro
tre atment
Ġblock ade
Ġunders tanding
Ġrec ruit
Ġhighl igh
ĠPT GS
lec tively
Ġdys f
Ġill ustr
Ġcoeff icients
Ġput ative
Ġlef t
Ġleu k
Ġenric hed
Ġintermedi ate
dermot t
* <
7 5
F urther
P atients
S al
e y
g i
g o
i x
k B
l er
m ap
w w
Ġ 6
Ġc or
Ġc ut
Ġc ase
Ġc lear
Ġc opy
Ġs our
Ġs ome
an alys
is m
Ġd id
Ġd uring
Ġb ul
Ġb road
anc hes
om par
our s
Ġpro s
ul t
ĠT able
ign ed
Ġex p
ev ed
Ġcon te
Ġv itro
Ġst and
ap ter
ad der
all ed
pl ay
te red
Ġon ly
Ġcl assi
Ġanalys es
ors son
Ġass ay
Ġwh ilst
Ġpred ominant
Ġne g
Ġne xt
Ġr ati
Ġr ight
Ġr isk
Ġpredic ting
Ġsam e
ox y
ĠA l
Ġ200 9
ĠL itchfield
omic s
tim al
iltr ating
Ġsup port
rap h
Ġpromot es
Ġmeas uring
Ġexpress ing
Ġup stream
Al together
yn am
Ġthrough out
ĠRNA seq
ub le
Ġag ainst
Ġstrong ly
Ġexperim ents
ĠCon tinuous
Ġmon ocytes
Ġheterogene ous
Ġend ot
Ġfi eld
Ġposi tive
Ġconsi der
Ġle ad
Ġdirect ly
Ġpattern s
Ġprolifer ation
Ġsol uble
Ġfac ilit
Ġlim it
Ġcentr al
CI H
Ġnov el
Ġreve al
Ġchemok ines
Col lectively
gi ogenesis
Ġbul k
anches ter
2 4
2 74
5 0
C ell
C hen
E M
P P
U n
c ed
c tional
d en
d uce
f ace
h ttp
l ic
l and
n ing
r ight
s ing
Ġ 8
Ġ <
Ġa im
Ġa ff
in duced
Ġt en
Ġc ir
Ġc ould
er t
Ġs er
Ġs ep
es c
Ġan y
or g
it ant
Ġm a
Ġm in
ati vely
Ġf u
Ġl ess
Ġl arg
om es
ĠC I
ĠC CLE
ĠC ompar
gen ase
Ġre cent
Ġinf lu
Ġim pro
id ent
ter isk
oc rine
pres sion
Ġres tr
Ġcon com
ĠĠĠĠ ĠĠĊ
ch ym
Ġv ers
ant s
pl oid
âĢ Ŀ
ĠM c
Ġ1 0
Ġor ig
Ġrespon ders
Ġde ep
Ġen g
orrel ation
Ġval id
Ġcomp ut
00 1
Ġne ed
Ġr ather
Ġsub se
ros is
Ġco ord
ĠA n
Ġ200 4
ĠL U
Ġcont inuous
Ġcontr ast
Ġvari able
Ġvari ables
Ġover l
Ġtherap eutic
Ġel ev
Ġnetwork s
ĠTC R
ak e
Ġset ting
Ġsecre tion
Ġsecre te
Ġeffect or
Ġder ive
inf iltrating
Ġcompar ing
Ġevas ive
Ġprof il
Ġmetast asis
Ġextrac ted
Ġextrac ellular
Ġheterogene ity
Ġnod es
ove red
Ġdeterm inant
IFN Î³
hibit ory
Ġutil ity
ĠRes earch
Ġhallmark s
ĠNF kB
Ġdescrib ed
Ġalgorith m
ĠcD C
Ġsubset s
trib ution
ĠSCNA s
Ġadap tive
Ġpredominant ly
oxy genase
ynam ic
Ġsep ar
ĠCompar ison
Ġconcom itant
Ġcoord in
3 9
4 0
C OX
C CLE
I L
I t
L O
M s
P ro
R ES
T K
e ep
h i
h or
h ouse
i ti
l ine
o b
s ist
t z
t he
t and
u ff
v en
v ir
y cl
z ol
in hibitory
on ment
en ds
er g
er ous
Ġin s
es ted
Ġan giogenesis
or ts
Ġm ade
Ġm ust
Ġf l
Ġf ul
ar r
Ġd ec
Ġb ar
Ġb et
ĠP R
om as
Ġpro st
Ġpro per
ac y
ul ate
Ġinf orm
Ġsu per
id es
il ar
ol s
Ġimmun os
ap p
ap id
ant ov
tic ular
qu ent
ri ve
ment s
ĠM HC
ĠM anchester
ĠN anostring
Ġor der
up pressive
Ġass ess
In t
Ġsc re
Ġbi ology
ari ates
Ġdis tribution
Ġwh at
Ġpath ology
oun ter
Ġr apid
Ġsur face
ĠH R
ĠD r
ĠD GE
de red
Ġ200 2
ensi ve
Ġbl adder
Ġinfiltr ating
aj ew
Ġfeat ure
Ġcombin ations
Ġk n
ens ity
Ġmacroph age
amet ric
Ġref ametinib
Ġy ear
Ġdown stream
Ġincre asing
Ġacc ur
Ġext ensive
par ametric
ĠIn flamm
Ġmethod s
Ġestablis h
Ġabund ant
Ġhighl ight
Ġform ation
Ġheal ing
Ġheal thy
Ġrequ ired
Ġneo plas
Mc dermott
Ġpubl ic
Ġamong st
Ġadvanc ed
Ġantibod ies
ĠCox PH
Ġenzym es
Ġinvestig ate
Ġfre quently
ĠID O
Ġcov ariates
Ġcoun ts
ĠEx am
Ġconte xt
Ġrati o
Ġendot helial
chym al
Ġvers us
vir onment
Ġbet ter
antov ani
ajew ski
A yers
B E
C P
F C
F s
L ymph
N ext
S I
S T
S h
a Ã
b al
b ot
c ape
c alled
e h
g ro
h ip
m ac
n ormal
r a
s c
t op
v als
w n
¯ ve
Â µ
Ġ Z
in i
in ase
at ch
Ġc ri
er n
Ġs k
Ġin st
al u
Ġw or
is es
ro w
Ġe m
ing er
Ġm RNA
Ġf ar
Ġd el
Ġd ev
Ġd rive
res sive
Ġb ur
Ġl ed
Ġl ear
Ġh ar
et t
un ctional
le v
ĠC A
ul atory
ĠT A
ĠT GFÎ²
Ġ201 1
ign ature
si de
gen e
Ġex pos
Ġre ad
ol ve
Ġcon cl
ab ility
ch i
Ġst ate
ap s
Ġcom plement
Ġac id
Ġac qu
Ġcl on
op timal
ĠN CIH
Ġad en
uc le
ific ations
Ġpath olog
Ġinter vals
der ived
Ġassoci ates
Ġch ang
ros pective
ĠH LA
Ġev alu
âĢĻ ,
eren ce
ĠA P
ĠE GFR
ition s
Ġother s
Ġpl as
Ġinhibit ory
Ġsec tions
Ġsec ond
Ġsel f
ĠTIL s
As terisk
typ e
Ġpar ticular
Ġap pl
Ġph ag
Ġfollow ed
Ġtherap ies
cent r
eu ploid
Ġ5 0
Ġk ill
Ġresul ting
ber g
lo bal
Ġtarget ed
Ġtarget ing
Ġselec tively
fy ing
Ġconf idence
Ġar ch
Ġhypothes ised
ĠCon f
Ġgener ally
Ġunders tand
Ġbin ding
Ġsuggest ing
Ġdrug s
Ġnod e
Ġannot ations
Ġsystem ic
Ġessential ity
Ġinclud e
Ġmalign anc
Ġcompon ents
Ġlik ely
Ġexcl u
Ġ19 9
Ġhel p
Gre ten
Ġbioinformatic s
Ġsuppor ts
Ġdiscover y
Ġmotif s
Ġparamet ers
Ġstand ard
Ġreveal ed
http s
Ġma xim
Ġorig inal
Ġimmunos uppressive
aÃ ¯ve
bot tom
Ġcri tical
Ġbur den
Ġlear ning
Ġchang es
euploid y
0 4
1 9
6 5
A r
C XCL
C TLA
E LA
E GF
N F
N on
O N
O R
R O
R S
R e
T M
T P
T umour
U sing
W he
a ve
b i
b ers
c ome
c cess
d om
e tic
e ous
f ter
h at
h ood
i ally
k eep
l ier
m ost
n e
n ik
o oxygenase
p in
p end
u k
y si
Ġ >
Ġa id
Ġa te
in ate
at map
Ġc re
Ġs qu
Ġs ensitive
an n
an o
Ġp anc
es en
al e
Ġan euploidy
el f
el ves
Ġw ays
is hed
it es
Ġm ight
Ġf ail
Ġf uture
ar ch
Ġd ig
Ġd ynamic
Ġd ensity
Ġb ack
Ġb eli
as ter
Ġal ong
ĠP h
Ġto ler
Ġl ist
Ġl ip
um eh
Ġth ought
Ġh ost
Ġh ouse
Ġpro duce
un it
im mune
ĠC hen
ĠC TLA
ĠT reg
ign ificant
ve re
Ġn ow
Ġn aÃ¯ve
Ġex hibit
Ġsu ccess
Ġim plic
ol d
oc h
ate g
Ġres earch
Ġgen ome
os ph
ch mark
ag ing
Ġcom ple
pl ifications
ri ed
ĠM ariathasan
Ġ1 5
Ġcl in
ĠS ch
ations hip
Ġg raph
Ġg lobal
Ġind ex
ud e
Ġinter play
Ġtranscrip ts
Ġassoci ate
igen etic
Ġmut ant
ĠE P
Ġ2 4
Ġ200 1
ĠG riven
Ġfin al
ĠW ol
ĠW NT
reg ates
Ġresist ant
RA F
oin ts
Ġcont aining
Ġindic ates
Ġcar ried
Ġu pon
ex press
Ġover all
Ġph ysi
Ġcombin ing
Ġben chmark
Ġdef ine
Ġam plifications
Ġresul t
enc y
Ġhuman s
Ġstudy ing
Al l
Ġits elf
Ġimport ance
ĠME L
GS E
Ġunc overed
Ġregul ators
Ġear lier
Ġnum erous
Ġnormal ised
Ġnormal isation
Ġrel ated
Ġrel ationship
Ġcluster ing
Ġstat istic
Ġconsist ently
Ġmajor ity
Ġmutation al
Ġupregul ation
Ġdep end
ĠU n
Ġmechanis m
hel ess
Ġbas is
Ġestablis hed
ĠĠĠĠĠĠĠĠĠĠĠĠĠĠĠĠ ĠĠĠĠĠĠĠĠ
Ġran dom
Ġfi le
Ġno tion
Ġrequ ire
Ġwhere as
Ġpowerful ly
Ġconsi dered
Ġquanti t
On e
Ġaut ocrine
Ġantibod y
air wise
Ġmalign ant
Ġcompon ent
Ġpresent ation
Ġprim ary
Ġep igenetic
Ġqual it
Ġcoll abor
Ġfit ted
Ġret rospective
Ġantagon istic
Ġagg regates
tit ute
Ġchall eng
ĠHN SC
Ġestim ates
Ġillustr ating
Sal tz
Ġexp an
Ġneg ative
ĠAl l
ĠLU SC
Ġelev ated
ycl ooxygenase
zol izumab
Ġful l
Ġproper ties
Ġinform ation
Ġscre en
Ġyear s
Ġpublic ly
Ġwor se
Ġclon es
Asterisk s
ĠConf Int
Ġmalignanc ies
nik ov
Ġate zolizumab
Ġpanc re
Ġhouse keep
Ġcomple x
ĠGriven nikov
Ġphysi ological
0 9
1 5
2 6
3 0
A S
C T
C om
C ounter
F S
F uture
G u
H e
H all
M M
N ot
R EG
S everal
T H
W ith
Y et
a w
a han
c i
c at
c ur
d le
d ependent
f or
i ew
l ed
l ess
m en
m ing
m et
m ore
n y
o le
p ran
p ite
r in
r ist
r uc
r action
r av
t y
t ures
u le
u se
y an
z ard
Ġ 7
Ġ j
re c
Ġc od
er by
Ġs il
an k
Ġp ur
Ġo cc
Ġo wn
al d
al y
al on
Ġan other
Ġan aly
ro ent
Ġf raction
ar t
ar in
ar til
ar thy
ar mac
ic o
ic it
ou red
res ting
ell ed
Ġb r
Ġb ec
as cul
Ġal though
ent re
ĠP an
Ġl o
Ġl iver
Ġl ands
om en
om od
Ġh os
Ġh ome
Ġh ours
im ens
le y
Ġwith out
ĠC orrelation
si der
si vely
si ble
Ġn ucle
Ġn Counter
se m
Ġinf lamed
Ġsign al
tr uc
ĠI I
ĠI m
Ġcon centr
iv o
iv ariate
ab ase
ĠĠĠĠ ĠĠĠĊ
Ġv ivo
Ġst ep
ag ed
ag land
ad es
ri tic
Ġbe fore
Ġg l
Ġg erm
Ġsh ort
Ġrespon d
Ġtran sition
Ġde g
Ġen ti
Ġmod ul
Ġha zard
Ġval idate
Ġinter rog
Ġcorrel ations
Ġsub ver
ĠB i
ĠB all
ĠB onavita
Ġch rom
Ġsur rog
Ġev en
Ġhe p
ik ing
Ġ2 5
ĠK arin
Ġ200 6
ĠG ajewski
Ġqu artil
ĠW e
ĠW ang
Ġpl us
Ġpo in
Ġeff ic
tim ately
pro tein
Ġro les
Ġlymph oid
Ġdevelop ed
Ġdevelop ing
Ġpromot ing
Ġindic ated
Ġbl ood
Ġpar t
regul ated
Ġph osph
Ġph armac
Ġdet ection
Ġtranscript omes
ĠKRAS G
Ġk ey
Ġk inase
ard ed
ort al
Ġref ers
Ġref erred
Ġref erence
Ġob j
Ġob t
Ġsecre ting
ree ment
Ġdes igned
Ġdes pite
Ġmeasure d
Ġcompa re
Ġdisc arded
Ġselec tion
Ġrel ative
Ġcontrib ution
Ġadjus ting
13 39
Ġconf ir
Ġdep endent
Ġcompar ison
Ġblock s
Ġpopul ation
Ġlink s
Ġinte gr
Ġmetast atic
Ġestablis hes
Ġtri al
Ġran k
Ġexpl ained
Ġunder pin
Ġdifferenti ate
ha roent
Ġannot ated
Ġneo antigen
Ġposi tively
Con sist
IFN g
Ġpubl ished
Ġmark ers
Ġtransform ed
Ġtransform ation
Ġinclud ed
Ġterm s
esp read
eli hood
Ġlik elihood
plet ed
Ġgre ater
Ġqual ity
Ġsiz e
arn ess
plot s
Ġmem ory
Ġequ ally
Ġfil tered
Ġimmunogenic ity
Ġeluc id
Ġeluc idate
Ġquestion ed
Ġcasc ade
Ġcasc ades
Ġdam age
Ġnec rosis
Ġdysf unction
Further more
Ġsour ce
Ġcir cul
ert ain
Ġlarg e
Ġimpro ved
Ġvalid ation
Ġsubse quently
Ġsetting s
Ġprofil ing
ven tional
Ġprost agland
Ġkn own
ĠInflamm ation
Lymph ocyte
normal ised
Ġappl ied
Ġarch ival
Ar non
esen chymal
Ġdig it
Ġback gro
Ġbeli eved
Ġalong side
ĠPh D
ĠTreg s
Ġimplic ated
ĠUn iversity
Ġexpan sion
Ġhousekeep er
ny der
pran ger
Ġsil ico
Ġlands cape
omod ulatory
Ġhome ost
sider ing
Ġquartil es
haroent ong
Consist ent
0 7
1 7
2 3
3 3
3 25
7 6
8 6
A AD
C GA
D esp
E N
F in
F irst
G ran
G ene
I CB
L R
L T
L i
L itchfield
M T
M e
M ariathasan
N e
S ome
S pranger
T CR
T umeh
T CGA
a e
a ff
b ack
b ust
c on
c orrel
c ox
c hes
c hed
d is
d riven
d itions
e red
f low
g in
i j
i ang
i ties
l ation
l ik
m er
m all
n ess
o es
p a
s timul
s ensitive
t rom
t heless
u ally
v ations
x press
y ros
Î ²
Î ´
Î ¼
Ġ +
Ġ x
Ġ ed
Ġ if
Ġa ge
Ġt able
Ġt yros
re ast
at el
Ġc ate
Ġc ore
Ġc ertain
he st
en in
en ge
er v
er ved
Ġs l
Ġs w
Ġs ix
Ġs unit
Ġp os
Ġo vere
Ġin iti
Ġan erg
ed back
Ġthe m
Ġthe ms
ti le
ti de
ro duc
Ġe ver
it ing
Ġm ar
Ġm il
Ġm elanoma
Ġm ouse
Ġf am
Ġf ate
ar c
ar cin
ic k
ic ity
ic tive
Ġd i
Ġd en
Ġd ominant
Ġd iversity
res h
ell ing
Ġb ev
Ġb est
Ġb one
Ġb uff
Ġb atch
Ġb reast
Ġal low
um m
am ous
anc he
anc ed
Ġh arness
Ġpro t
ac ity
ac hes
ac izumab
ĠT ur
Ġn ine
Ġex ist
Ġre d
Ġre p
Ġre pres
Ġinf er
tr id
Ġsu s
ĠI C
ĠI TH
id ing
il cox
oc arcin
Ġres olution
Ġcon ditions
Ġimmun o
ch ok
Ġv iew
Ġst ress
ant ly
Ġac ute
ri x
Ġare a
Ġdat abase
ist ance
op ath
ĠN T
ĠN GS
ĠS TA
ĠS ignature
Ġbe gin
Ġsh ould
Ġass ays
Ġun ivariate
Ġen vironment
In te
In flamm
ren g
Ġsc ale
Ġbi ological
ud ed
Ġinter act
Th orsson
Ġr ich
ĠB a
ĠB RAF
Ġactiv ating
ĠH u
Ġmet ric
Ġpredic ts
Ġpredic ted
enti ally
Ġdiff use
de pleted
ĠA UC
ĠE v
Ġstr ateg
ever theless
Ġ200 5
ĠG u
ĠL I
ĠL e
Ġpl ate
Ġpl ates
end ritic
Ġab s
Ġab le
Ġab out
Ġab ove
Ġcons erved
Ġcan d
ĠccRCC s
port antly
Ġfe edback
Ġphenotyp ic
Ġro ut
Ġro bust
Ġprote omic
Ġthan k
ip her
ct al
Ġindic ator
Ġcar trid
ex ist
ia o
Ġvari ance
Ġvari ous
Ġdet ail
Ġdet ected
cent age
Ġel icit
Ġtest ing
Ġset s
ang i
Ġsecre ted
Ġpot ent
Ġpot entially
Ġbot tom
Ġsugg ests
Ġtarget s
Ġlig and
Ġacc ount
Ġunc over
Ġregul atory
Ġmechan istic
Ġext end
Ġcap acity
Ġwork flow
GF b
Ġman ip
Ġag ents
Ġag reement
Ġdep ends
ĠU K
Ġhig hest
Ġappro ved
Ġappro aches
Ġbin ary
Ġmetast ases
Ġobser vations
tan eous
Ġdifferenti al
Ġdifferenti ation
pos ed
Ġdeterm ine
Ġcas es
Ġmark ed
Ġmetabol ism
Î³ Î´
Ġinv olved
opy right
Ġconver ted
ĠRes istance
Ġsim ul
Ġsim ilar
Ġprov ide
Im portantly
Ġsiz es
arn ett
Ġmem bers
Ġhel per
Ġdemonstr ate
Ġagg ressive
Ġchall enge
EG s
me an
Ġ** <
Ġwid espread
Ġmat rix
Ġdr iver
respon ders
ĠTh orsson
Ġcompr ising
Ġhighligh ted
Ġdysf unctional
ww w
analys is
Ġlead s
PP A
esc u
Ġmin utes
Ġfu el
Ġinflu ence
arr ay
ĠExam ples
Âµ l
Ġsk ew
Ġexpos ure
Ġexclu sion
Ġmaxim ise
Ġsqu amous
Ġlip id
Ġclin ic
ĠWol chok
Ġbenchmark ing
Ġpancre atic
Not ably
cat enin
rist escu
ruc ially
Ġj oint
Ġbec ome
ascul ar
Ġlo op
Ġgerm line
Ġdeg ree
Ġenti re
Ġeffic acy
Ġobj ective
Desp ite
First ly
Gran ahan
ae ys
Ġtyros ine
Ġcate gor
Ġsunit inib
Ġpos sible
Ġanerg y
Ġthems elves
Ġbev acizumab
Ġbuff er
Ġrepres ents
ilcox on
ocarcin oma
Ġmetric s
Ġcartrid ge
) )
0 2
1 6
2 8
3 1
3 8
4 7
4 9
5 6
5 9
6 2
6 9
7 8
A B
A cc
B i
C C
C S
C l
C haroentong
D I
G iven
H LA
I C
I N
K B
L S
M D
M ed
M ul
M ap
M ark
M antovani
N evertheless
O ther
P T
P an
S a
S uch
S inger
T able
T GFÎ²
V EGF
W T
W ound
X u
a i
a u
b e
b re
b es
b our
c o
c s
c her
c cRCC
d at
d own
e atmap
f t
g ed
g ent
i ly
i ence
i eu
j ected
l as
l og
m id
m yt
n at
o y
o red
o ved
s ed
t w
t ell
t xt
u ate
v an
v al
z h
§ al
Ã §al
Ġ ul
Ġ ut
Ġ Î³Î´
Ġa chi
Ġa fter
Ġt ren
Ġt ake
re in
re ction
Ġc ult
on Ã§al
en es
en ing
en tical
er r
Ġs of
Ġs ought
Ġs umm
an y
an on
an oid
Ġp ers
Ġp ost
Ġp airwise
or ph
ed iting
ti s
Ġw ound
is ual
ro p
Ġof ten
Ġm im
Ġm ature
Ġm aster
Ġm esenchymal
Ġm orph
Ġf ive
Ġ( **
Ġ( *<
Ġd ou
Ġd il
Ġd ue
Ġd ual
res tr
Ġb and
as c
Ġal one
Ġto ol
Ġl oc
Ġl abor
Ġ20 00
um ar
om y
Ġth ym
et s
et ry
et hor
un n
im us
ot s
le ft
ĠT umour
ĠT GFb
tion ed
ow led
gen ce
Ġn ature
Ġas pec
Ġex act
Ġex ha
Ġre ce
Ġre pro
Ġsign ific
Ġsign als
tr ans
us tion
Ġim age
id a
ol id
ol imus
ter m
mun o
ur al
ur am
os ine
Ġcon ventional
iv ol
Ġimmun omodulatory
if ically
ib er
Ġv er
Ġv isual
Ġst ained
ag nos
ad a
ad i
pl ing
te ad
te ins
ine x
ore ctal
ĠM otzer
ĠM antovani
Ġ1 2
ran s
alys is
Ġcl os
op h
op ro
Ġor g
ĠS myt
ple tion
Ġg u
Ġprog res
Ġsh ape
Ġrespon ding
st anti
Ġmod er
Ġmod al
ren ce
ver se
ĠR ELA
ari able
cl inical
cl onal
Ġwh ole
Th rough
pec tively
Ġr are
Ġsub stanti
ĠB ar
ep roduc
ep Map
ĠH eatmap
Ġev olved
omark er
Ġdiff ic
ĠD C
ĠD NA
ĠD EGs
ĠâĢ ľ
ong ed
Ġhe ad
ĠE MT
Ġstr iking
ĠK M
ĠF C
ect ual
ĠG en
Ġ3 0
Ġpre ced
Ġadd ed
ĠW ald
Ġpl ethor
Ġper ipher
Ġper centage
Ġeff orts
Ġclinical ly
Ġcons ens
Ġcons tit
Ġcons truc
Ġmulti plic
Ġsup pressive
Ġro w
Ġpromot er
Ġexam ples
Ġexam ined
Ġout come
Ġbl ue
ollow ing
man n
Ġvari ation
regul ation
Ġid entical
Ġproduc t
ard o
ES C
enc ed
ak rav
Ġrem oved
Ġcharacter isation
Ġdes ign
Ġprocess ing
Ġdevelopment al
Ġcol orectal
Ġsugg ested
Ġprev al
Ġtr ig
Ġtr ametinib
Ġdisc us
Ġgroup ed
Ġantigen icity
Ġselec tive
Ġregul ator
Ġstrati fication
Ġstrati fying
Ġcarcin omas
Ġcontrib utes
Ġperform ance
em at
Ġcompar able
Ġcoh orts
Ġtranscriptomic s
ĠU p
Ġar m
Ġgener ation
Ġappro ach
ibrobl ast
Ġmethod ology
PTI high
Ġdire ction
iqu es
Ġfunction s
Ġprogram s
Ġpredict or
Ġpredict ors
Ġran ge
Ġspec ifically
Ġprol onged
Ġexpl ain
Ġannot ation
Ġrepor ts
Ġutil ising
lu ence
Ġop tim
Ġstrom a
Ġuse ful
Ġadvanc es
Ġaut hor
Ġhist opath
ĠCh apter
Ġidentify ing
ier arch
xim ately
Ġprim ing
Ġgre at
Ġalgorith ms
Im mune
gr ad
Ġfocus sed
TIS high
Ġimp act
Ġdemonstr ated
lan k
Ġenh ancer
Ġenh anced
Ġ** *<
Ġtechn iques
ish ida
ĠTh om
Ġnec k
Ġinduc ed
Ġencod ing
Ġmicro array
Ġrecruit ment
Ġleuk ocytes
Ġleuk ocyte
go ing
Ġcor rection
Ġsour ces
Ġclassi fied
Ġconsider able
Ġlimit ed
Cell s
ĠCI BE
Ġcomput ational
Ġoverl ap
Ġsepar ated
Ġcoordin ated
LO H
TK I
hi le
the tic
Ġsuper nat
app ed
Ġdel iver
Ġhar mon
ĠCA Fs
ĠTA Ms
Ġconcl ude
Ġaden ocarcinoma
Ġpatholog ists
Ġplas ma
OR T
RS ORT
Whe re
Ġcre ate
Ġfail ed
Ġsuccess ful
Ġqualit atively
Ġchalleng ing
ĠAll en
resting ly
Ġhos tile
Ġstep s
Ġhep at
Ġpoin t
Ġobt ained
Ġconfir m
Ġelucid ated
Ġprostagland in
Ġdigit al
Ġbackgro und
Ġhomeost asis
325 5
Fin ally
correl ated
Î¼ M
Ġsw itch
Ġovere xpress
Ġever olimus
Ġmar row
Ġmil ieu
Ġfam ily
anche z
Ġimmuno editing
Inte restingly
Ġabs ence
Ġcand idate
exist ing
angi ogenic
cs v
tw are
Ġachi eved
Ġcult ure
onÃ§al ves
Ġsof tware
Ġlabor atory
owled ge
Ġaspec ts
Ġexha ustion
Ġsignific ance
ĠSmyt h
Ġplethor a
Ġconsens us
Ġmultiplic ative
akrav arthy
Ġhistopath ological
ĠCIBE RSORT
2 9
3 6
4 5
4 6
5 7
7 9
8 0
8 3
8 5
8 7
9 1
A G
A c
A z
A MP
A LO
B ar
C he
C off
D UC
E A
E CM
F ollowing
F lank
G alon
H eg
H och
I D
I NT
J im
L og
L uc
L ike
M a
M MP
M any
N eg
O S
P R
P re
R ib
S N
S S
S im
S SI
S chi
S ignificant
S nyder
S anchez
S EA
T rans
U til
U LT
U SSI
W ang
W ilcoxon
Y C
Y T
] ,
a her
a ren
b ed
c ell
c le
c ore
c orrelation
d b
d i
d es
d ep
d enti
d ividual
e k
e am
e ments
f er
f unction
f ocal
g es
g se
g ether
h al
h ub
i am
i oss
j ur
k w
m o
m in
m al
m is
m ic
m od
m align
o is
p m
p ut
p ose
r id
r up
s u
s up
s yn
s titute
s olid
t on
t or
t un
t ure
t ment
v ious
v olution
w ant
w ard
x ed
Â °
Ã ¶
Ã Ń
Ġ "
Ġ jus
Ġ Î²
in n
in ing
in de
Ġt ak
Ġt eam
re t
at a
at form
Ġc ues
Ġc ross
Ġc yclooxygenase
on ic
on om
en ding
en vironment
er ine
Ġs ites
an e
an aher
Ġp e
Ġp ep
Ġp rin
Ġin jur
es ions
al kw
el t
el ens
ti ally
Ġw il
it ov
ing u
Ġm ast
Ġm elan
Ġf os
Ġf ib
Ġf ore
Ġf und
Ġf ocal
ar com
ic os
ou k
Ġd ay
Ġd ose
Ġd endritic
res ident
ell y
ell ens
Ġb esp
as h
as ation
20 0
Ġal ign
Ġal most
ent les
ĠĠ Ġ
ĠP FS
ĠP AAD
Ġto ols
Ġto gether
Ġl ever
Ġl ater
Ġl esions
um et
um ac
um inex
am a
am bre
om ogene
Ġth resh
TI L
TI ON
Ġh ierarch
Ġh omogene
et inger
Ġpro bes
ac ed
ac ellular
ac rine
ĠC X
ĠC ast
ĠC entre
ĠC opyright
ĠC ESC
ul ated
ĠT N
ĠT o
ĠT NF
ve ill
Ġn or
Ġn ivol
Ġex pec
Ġinf erred
Ġsu st
us lan
id ed
ut ed
ter ing
ev en
her ap
igh ts
pres ses
Ġres our
Ġres pective
Ġres ident
ur n
os is
os yan
Ġcon n
iv ing
ab r
if ied
ib le
ch ts
Ġv ir
Ġst reng
Ġst ored
ap se
all el
ers ed
Ġare as
Ġwas h
Ġwas hed
Ġon t
ĠM ill
Ġ1 8
Ġ1 000
ce p
op e
op o
op t
op ies
op to
ĠS A
ath an
Ġg ran
Ġg ained
Ġg iven
Ġind uce
Ġde pletion
ir ing
ff er
Ġen abl
ue z
Ġmod ern
ĠR am
ĠR PPA
Ġsc ul
ari ly
Ġdis play
ogen s
ogen ous
00 3
tumour al
Ġr ates
Ġch apter
Ġsur ger
Ġactiv ate
ĠH ALO
Ġev olution
Ġev olve
Ġsam pling
Ġreg ion
Ġreg ard
Ġreg imens
ĠD ub
ĠD epMap
per ty
ĠâĢ ¢
ox ia
ox plots
ĠA r
ĠA yers
form s
Ġstr uc
Ġstr ata
Ġlow est
ast oma
ast atic
Ġ200 3
ĠG arnett
ĠG SEA
Ġdifferen ces
av el
av asation
ĠL i
ĠL ower
ĠL uminex
Ġpre cur
Ġpl atform
fi er
Ġmedi um
RA CT
ok e
Ġcons ists
Ġphen omen
ĠIL C
bl astoma
to od
port al
Ġsup plementary
Ġprote omics
han g
Ġcont in
Ġcar ry
Ġout l
Ġinc or
Ġche mot
Ġsel ect
plement ed
aj lic
lecul ar
acroph age
Ġ4 0
Ġpar acrine
Ġap pend
Ġtranscript ome
ov a
Ġproduc tive
Ġ5 00
Ġel ements
iz i
Ġam ount
HC A
com p
com bin
Ġref er
Ġintr acellular
Ġdown regulated
otherap y
ak ag
Ġse ek
Ġcol on
Ġcol oured
Ġtr yp
Ġtr ained
Ġtarget able
Ġdisc rim
Ġimmunotherap eutic
mark ably
Ġregul ation
Ġmean s
Ġmean ing
Ġcarcin ogenesis
ial ised
Ġhyp oxia
Ġperform ing
inf lamm
Ġwork ing
ibro tic
ĠV ariable
ĠIn tell
ĠIn stitute
Ġconf ound
Ġconf luence
Ġdist ingu
Ġblock ing
SC USSI
Ġmost ly
Ġgener al
Ġclonal ity
Ġunders tood
Ġappro val
Ġsequenc ed
Ġpat ches
Ġcytotoxic ity
Ġspec ulate
Ġspec trom
Ġspec ialised
ĠPro perty
Ġend ogenous
ifer ative
Ġspati ally
Ġsystem atic
Con sidering
Ġmark er
ĠPT GE
Ġmetabol ites
Ġop pos
Ġinv as
Ġle ave
Ġquanti fication
Ġplot s
Ġadvanc ing
Ġhist ology
air s
Ġsim pl
ording ly
Ġdo es
Ġgenetic ally
Ġenzym e
Ġmeasurement s
Ġfre quent
Ġprov iding
plet e
Ġcoll ated
ĠTP M
Ġprofound ly
Ġdemonstr ating
Gre en
II I
ĠJ erby
ĠJ iang
Ġsyn thetic
Ġequ al
Ġfil tering
Ġcov ariate
Ch akravarthy
uch i
ene z
Ġwid ely
Ġfavour able
Ġfavour ably
Ġencod ed
Ġcompr ises
Ġparamet er
Ġmicro environment
Ġrecruit ed
Ġhighligh ting
analys es
Ġpros pective
Ġheterogeneous ly
Ġfacilit ates
Ġfacilit ating
EM T
Ġaim ed
Ġimpro ve
Ġrestr ain
ĠMc Granahan
Ġeng age
Ġcomput ed
Ġsubse quent
Ġprofil es
Ġsepar ately
RES ULT
Ġins tead
Ġfl avour
Ġrapid ly
ĠHR s
Ġaccur ately
Ġaccur acy
Ġneoplas tic
ĠExam ple
ST RACT
ra un
Ġinst ance
Ġdev i
Ġacqu ire
Ġaden osine
Ġevalu ated
Ġplas tic
Ġphag ocytes
Ġkill ing
RO DUC
Re markably
TM B
Ġaid s
Ġdynamic s
ĠSch umac
Ġstatistic al
Ġstatistic ally
Ġquantit atively
met astatic
Ġcod e
Ġocc ur
Ġanaly se
Ġconcentr ations
Ġchrom os
Ġsurrog ate
Ġpharmac ological
Ġed ges
erv ised
Ġsl ides
Ġiniti al
Ġden se
Ġharness ed
Ġprot oc
Inflamm atory
ĠBa o
ĠHu go
ĠEv ents
ĠLe un
Ġrout ine
taneous ly
AB STRACT
Acc ordingly
CS F
DI SCUSSI
MD Ms
Med zh
PT GS
dat aset
Ġul timately
Ġut erine
ĠÎ³Î´ T
anoid s
Ġmorph ology
Ġthym us
trans form
Ġclos ely
Ġgu ide
Ġprogres sively
eproduc tions
Ġdiffic ult
Ġpreval ent
ĠUp per
ĠThom men
Az izi
Coff elt
Heg de
Hoch berg
INT RODUC
Rib as
Schi etinger
Trans crip
gse a
ioss one
malign ant
rid man
sup ervised
Ġjus t
onom ous
Ġprin ci
Ġinjur y
alkw ill
Ġwil d
Ġmelan omas
Ġfos ter
arcom as
ellens tein
Ġbesp oke
umet inib
ambre chts
Ġhomogene ous
veill ance
Ġnivol umab
uslan der
ĠMill er
opto tic
Ġregard less
ĠDub ois
Ġprecur s
Ġdiscrim inate
Ġspectrom etry
RESULT S
ĠSchumac her
DISCUSSI ON
Medzh itov
INTRODUC TION
% )
) "
) -
- ,
/ )
0 3
0 8
1 20
1 05
1 50
2 2
4 1
4 4
4 8
5 2
6 7
6 8
7 7
8 1
8 4
9 0
9 6
A K
A p
A t
A uslander
B C
B L
B M
B e
B ech
B RS
B alkwill
C u
C ristescu
C rucially
C YT
D e
D Cs
D rug
E C
E AD
E GFR
F ar
G U
G r
G RC
G ajewski
G enes
G onÃ§alves
H N
H u
H ut
I P
I GU
J erby
K n
L I
L U
L ev
L ines
L EM
L iao
M B
M E
M o
M ut
M od
M acroph
M HC
M SI
M aster
M asc
N K
N anostring
N CIH
N ardo
N athan
O BE
P oints
P uram
Q C
Q u
Q uez
R F
R Y
R ed
R ef
R ather
R ELA
S U
S t
S tr
S ch
S ub
S ingle
S TA
S core
S akag
T F
T X
T al
T arget
T LS
T BRS
U p
V an
W ES
W hat
Y u
a it
a res
a ut
a red
a em
a ult
a elens
b s
b ac
c ellular
c ert
c ounter
c ano
d ed
d MM
e q
e ed
e ath
f ibroblast
g ers
g ram
h o
h ouk
i ot
i ol
i ri
i ens
i CA
i enced
j am
k ed
l ut
l ab
l ia
l atel
m p
m it
m ate
n s
n ine
n ition
o at
o bin
o one
o tide
p en
p ir
p oints
r it
r un
r ay
r ary
r plot
s ign
s ure
s ap
s ens
s ub
s ignificant
t ur
u sive
u ech
w er
w hile
x ici
y l
y cle
z y
Ã ©
Å Ľ
Ġ ~
Ġ ur
Ġ GE
Ġ Zelenay
Ġa ver
Ġa fore
in d
in o
in itions
Ġt ack
Ġt ables
Ġt ested
re f
re hen
re ct
re iber
at istic
Ġc ou
Ġc ul
Ġc alled
Ġc rucially
Ġc opies
Ġc ycle
on sist
on volution
en esc
en jam
er ations
er han
Ġs om
Ġs ex
Ġs til
Ġs ite
Ġs earch
Ġs mall
Ġs even
Ġs arcomas
Ġs enesc
an not
Ġp le
Ġp ol
Ġp ron
Ġp ortal
Ġp aren
Ġo x
Ġin str
es ides
al es
al ance
Ġan tic
or ti
or ig
ed ing
ed ical
Ġw ay
is ition
is ions
Ġe icos
it or
it ed
it helial
Ġm ag
Ġm ass
Ġm ount
Ġm uch
Ġm aps
Ġm apped
ig or
Ġf un
Ġf ine
Ġ( *
ar s
ic e
ic tion
ic entre
ou l
ou ts
Ġd im
Ġd os
Ġb alance
as on
as ure
20 12
Ġal ike
Ġal tern
Ġal be
ĠP I
ĠP t
Ġto xici
Ġl ab
Ġl eng
am ental
om al
om ach
Ġth ous
Ġh ttp
Ġpro p
im mun
ot ti
le ct
ac tiv
ac ts
ac ted
ac tively
ĠC l
ĠC ristescu
ul a
ul f
ĠT HCA
ow ski
Ġn ic
Ġn am
Ġn omen
Ġas sem
Ġex tern
ure nine
Ġre ly
Ġre action
Ġre duc
Ġre duce
Ġre lev
Ġre verse
Ġre ason
se ud
se ct
Ġinf ected
Ġinf ection
tr act
ec ting
ĠI II
ĠI denti
Ġcancer ous
id onic
ut ing
il ent
il owski
ol ves
ol cano
ate ful
igh bour
ur ation
ur vival
ur rence
Ġcon cert
od ynamic
sion s
iv es
Ġimmun ogen
ĠĠĠĠ Ġ
ib rary
Ġv ast
Ġv ary
Ġst omach
ap es
ap our
ag i
ad r
ad s
ad ox
Ġcom b
all s
pl ed
pl ar
pl oy
ri al
ri ad
Ġon ce
Ġon set
Ġon going
ĠM ell
ĠM CP
ĠM YC
ĠM acrophage
ĠN ext
ĠN ishida
ĠS t
ĠS al
ĠS hi
ĠS nyder
ĠS aeys
ĠS aelens
Ġad ren
Ġg ood
Ġind eed
og nition
up y
Ġde b
Ġde grad
ir a
Ġun ivers
Ġun lik
Ġun supervised
ff ect
In dividual
Ġmod ule
Ġmod elling
ver ing
ous ly
ous sens
ĠR ia
ĠR TK
ĠR uff
ĠR AS
ĠR CC
ĠR eproductions
ĠR ho
Ġsc ann
ific ation
Ġha emat
Ġcomp ute
Ġcomp rehen
cl ature
Ġdis mal
Ġdis rup
Ġ0 25
Ġwh y
Ġwh om
Ġpath ogenic
Ġpath ogens
Ġcorrel ative
Ġne ighbour
oun ts
oun ced
Ġr un
Ġr adi
Ġsub jected
ĠB l
ĠB raun
ĠB MDMs
ĠB run
ĠB enjam
Ġch ance
iss ue
Ġsur v
ĠH a
Ġpan de
Ġev ent
Ġev ident
Ġreg ress
ĠD own
ĠD anaher
per forms
Ġhe re
Ġhe atmap
th ase
ĠA REG
ĠK r
ĠK umar
ĠF u
ĠF IGU
Ġother wise
Ġit erations
ĠG Z
ĠG ene
ĠG raph
Ġdifferen ce
av oured
Ġqu adr
ĠL ack
ĠL ambrechts
ach idonic
Ġstud ied
ĠW hat
Ġpl ated
Ġpl ace
Ġpl aced
Ġper tur
Ġmedi a
Ġeff ective
Ġcons crip
Ġat ten
Ġcan not
bl ue
Ġsup pression
Ġsup presses
Ġsup plemented
ocyt osis
Ġcont ained
Ġcont ains
Ġindic es
Ġindic ators
Ġmeas ures
Ġout performs
Ġinc om
Ġinc onsist
Ġsel umetinib
Ġinfiltr ated
ex trinsic
ex pression
ici ans
iver se
Ġvari ant
ĠO n
ĠO ur
ĠO ld
Ġpar tially
Ġpar allel
Ġover lo
Ġover come
Ġdet ecting
ĠNK G
Ġben eath
Ġk yn
Ġel im
Ġel usive
Ġdef ault
Ġdef initions
iz ed
Ġam ino
Ġref lect
ak ing
jus ted
Ġrem od
Ġrem ain
Ġrem ove
Ġcharacter ised
Ġsecre t
Ġidenti fication
lo ad
Ġpoor ly
Ġdevelopment ally
ory lation
Ġprev ent
Ġtr aining
ocy tic
Ġmy of
Ġmy riad
Ġimmunotherap ies
Ġacc ord
Ġantigen s
Ġregul ate
Ġregul ates
Ġstrati fy
Ġintratumour ally
Ġexper ience
Ġonc ogene
utrophil s
Ġcap tures
Ġcap ture
Ġsp ace
Ġsp read
Ġextr action
Ġman if
Ġmic ros
Ġcheck ed
Ġupregul ate
em plar
ĠV an
ĠV EGF
ĠV olcano
Ġdep ending
Ġcompar tment
Ġsequ ence
ĠU V
Ġar achidonic
Ġdist ant
Ġcalcul ate
hel i
Ġdiver gent
ĠCon sidering
Ġgener ated
Ġgener ate
Ġcommon al
Ġcommon ly
Ġadv ance
Ġappro ximately
Ġtim ep
Ġbin d
Ġbin ds
Ġtreatment s
Ġsequenc es
Ġmon otherapy
Ġmon itor
Ġrec urrence
Ġrec ognition
Ġ9 6
ĠCP M
Ġcur ated
Ġspec imens
Ġexpl o
Ġexpl or
Ġform ula
Ġdifferenti ally
ha i
present ing
Ġwhere by
11 59
Mc Far
Ġspecific ity
Ġpubl ication
ĠPT EN
Ġmetabol ic
Ġmetabol omics
An other
An alysis
lu ores
Ġop timal
Ġinv olve
Ġinv olves
Ġclass es
Ġquanti le
TA RY
cod ing
eff icient
Ġhist or
Ġhist ological
ĠCh ar
ĠCh inn
Ġconver ts
Ġconver ge
Ġconver gence
tt cher
Ġdo ing
Ġenzym atic
antigen ic
Ġchem oat
Ġinvestig ation
Ġinvestig ated
Ġprim arily
Ġep ithelial
Ġep icentre
Ġprov ides
Ġprolifer ate
Im muno
eg lia
ie ÅĽ
ĠcD Cs
Ġsol id
Ġlim ma
TIS low
Ġexcl uded
Ġret ained
Ġantagon ises
MP RES
Ġsyn apse
Ġsyn thase
Ġstimul i
Ġstimul ate
Ġequ ival
Ġgr ant
Ġgr ad
Ġgr ade
Ġgr ateful
Ġenh ance
Ġsuppor ting
Ch apter
HR s
Ġtechn ical
Ġmat ched
Ġmat uration
Ġdr ivers
Ġdam aged
Ġrepresent ing
Ġinduc ing
Ġencod es
Ġsuppress ing
Ġhighligh ts
Ġillustr ate
Sal mon
Ġcor rplot
Ġpros per
Ġpros pectively
Ġstand ards
Ġclassi fier
Ġconsider ation
Ġlead ing
Ġfacilit ate
PP LEM
Un like
Ġaff ects
Ġcir c
Ġser ies
Ġlarg ely
ĠMc dermott
ĠLU AD
Ġelev ate
Ġdeterminant s
Ġconcomitant ly
ob ank
Ġdec onvolution
Ġdec isions
Ġbar plot
app ing
Ġassess ment
Ġkn owledge
ĠInflamm atory
Ġestablish ment
Ġneoplas ia
Ġneoplas ms
sc ore
ĠZ hang
Ġsk in
Ġinst ability
row aeys
Ġem bed
Ġdev oid
lev el
ĠCA F
Ġread outs
Ġconcl uded
Ġacqu isition
Ġevalu ate
ĠAP C
ĠAP Cs
ĠAP OBE
Ġsecond ly
Ġhelp ed
Ġmaxim um
TM E
Tumour s
Whe ther
bi ased
ne z
Ġtoler ance
Ġexhibit s
Ġexhibit ed
ĠSch reiber
Ġgraph s
express ed
Ġrelationship s
ĠĠĠĠĠĠĠĠĠĠĠĠĠĠĠĠĠĠĠĠĠĠĠĠ Ċ
ĠĠĠĠĠĠĠĠĠĠĠĠĠĠĠĠĠĠĠĠĠĠĠĠ ĠĠĊ
Ġrandom ly
Ġrequire ment
Ġquantit ative
Ġqualit ative
Ġcollabor ate
Ġchalleng es
Ġcomplex ity
He rein
men tioned
Ġocc upy
Ġanaly tical
Ġbr ain
Ġnucle i
Ġconcentr ation
Ġgl i
Ġrespond ed
Ġmodul ators
Ġinterrog ated
Ġinterrog ating
Ġsubver sion
Ġsurrog ates
Ġphosph opro
Ġphosph orylation
Ġpharmac odynamic
Ġcircul ation
Ġcircul ating
EN TARY
aff in
con cept
stimul ation
stimul atory
ick ing
Ġdi agnos
Ġallow ing
ĠTur ley
ĠTur ajlic
Ġrep air
Ġsus cep
ĠSTA T
Ġenvironment al
Ġstrateg ies
ĠGu o
ĠLI F
ĠLI HC
Ġdetail ed
Ġmanip ulate
Ġsimul taneously
Ġlipid s
Ġloop s
Bi omarker
Mul ti
Mark osyan
Sa hai
ai yan
au x
down load
las ting
mid dle
Ġtren d
Ġsumm ary
Ġpers onal
rop ic
restr ictive
Ġrepro gram
Ġver y
Ġvisual isation
Ġorg ans
Ġmoder ate
Ġmodal ities
Ġsubstanti ally
Ġpreced ing
Ġperipher al
Ġconstit utes
Ġconstruc ted
Ġtrig gers
Ġoptim isation
Ġgreat ly
Ġsupernat ants
Ġharmon ised
Ġsuccessful ly
Ġoverexpress ed
Jim enez
Luc otti
Like wise
Neg ative
SN E
Sim ilar
Util ising
dep map
mod al
Ã¶ ttcher
ĠÎ² catenin
inde a
Ġtak en
Ġfib rosis
Ġfund amental
Ġlever aged
Ġthresh old
Ġhierarch ical
ĠCX C
Ġexpec ted
herap ies
abr ita
Ġvir us
Ġstreng th
ĠSA GE
Ġgran ul
ĠRam os
Ġscul pt
Ġstruc tures
Ġphenomen on
Ġincor por
Ġappend ix
inflamm atory
ĠIntell ectual
Ġconfound ed
Ġdistingu ish
ĠPTGE R
Ġoppos ing
Ġflavour s
Ġdevi ance
Ġplastic ity
Ġchromos omal
Ġprotoc ol
Ġprinci ples
Ġfoster s
Bech t
Gr ail
Hut ton
Lev y
Macroph ages
Masc aux
Quez ada
SU PPLEM
Sakag uchi
TX A
Tal houk
Target ing
Yu en
aut onomous
bac co
dMM R
iot ropic
oone y
pir in
sap iens
uech ler
Ġaver age
Ġafore mentioned
Ġtack le
atistic al
Ġsom atic
Ġstil l
Ġsenesc ence
Ġple iotropic
Ġparen chymal
Ġantic ip
orig in
Ġmag n
Ġalbe it
Ġtoxici ties
Ġleng th
Ġthous ands
Ġnomen clature
Ġimmunogen omic
ĠMCP counter
Ġdegrad ation
Ġunivers ally
Ġunlik ely
ĠRia z
ĠRuff ell
ĠBrun i
ĠBenjam ini
Ġpande mic
ĠDown stream
ĠFIGU RES
Ġoverlo ok
Ġkyn urenine
Ġaccord ance
1159 78
McFar land
ĠChinn aiyan
ieÅĽ lik
ĠAPOBE C
Ġsuscep ti
Ġreprogram ming
SUPPLEM ENTARY
) ;
- /
1 4
1 00
2 7
3 2
3 4
3 5
3 7
4 2
4 3
5 8
5 00
6 1
6 3
6 4
6 00
7 1
7 2
8 2
8 8
9 2
9 7
9 8
9 9
= âĢĿ
A d
A g
A m
A u
A w
A TP
A mid
B ro
B ot
B ased
B RAF
B oxplots
B rowaeys
B indea
C O
C re
C am
C ur
C ir
C ox
C yclooxygenase
C arthy
C opyright
C anon
C EC
C iri
C oussens
C ounts
C abrita
C ieÅĽlik
D C
D v
D is
D ec
D oc
D ys
D GE
D av
D RA
D DR
D TA
D eep
D ann
D oes
D endritic
D obin
E x
E ach
E ffect
E DTA
F I
F rom
F eld
F FPE
F ridman
G G
G or
G erm
G CT
G arc
G arnett
G entles
H o
H an
H am
H om
H igh
H ake
H avel
I R
I V
J a
J iang
K im
K RAS
K Î³
K umar
L e
L ong
L ang
L CA
L ater
L aw
L ane
L BC
M L
M y
M er
M ajor
M TA
M art
M unn
N B
N D
N o
N um
N FÎºB
N ew
N ie
N ishida
O LR
P V
P o
P on
P er
P ad
P hen
P rog
P airwise
P AAD
P elly
P latel
R G
R a
R am
R od
R iz
R eg
R TK
R PPA
R IN
R ooney
S D
S m
S el
S up
S ade
S par
S ignature
S mall
S erhan
S agi
T a
T her
T op
T em
T wo
T OR
T RIN
U V
U l
U Cs
V ID
V OS
V eglia
W G
W h
W all
W ald
W hile
W ellenstein
X ue
X IN
Z are
a gen
a ise
a ired
b a
b d
b t
b ig
b ar
b ell
b ly
b ec
b ations
b ox
b ial
b ility
b ie
b ols
b reng
b bs
c re
c he
c al
c or
c ist
c ise
c ial
c zer
c are
c old
c anon
c DC
d T
d u
d ar
d et
d ds
d ivid
e ated
e qu
e gg
e present
e ij
e ira
f l
f s
f it
f act
f ies
f ast
f ect
f to
f ree
f old
f ibrotic
g s
g t
g ell
g et
g os
g ment
g ical
g ently
h m
h am
h im
h ors
h ren
h ough
h ours
h aps
i an
i res
i as
i et
i le
i eld
j ac
j ects
k n
k y
k al
l a
l ar
l ent
l ot
l ated
l ies
l ip
l ational
l iferative
m c
m ink
m inal
m anchester
n o
n sem
o tion
o ly
o antigen
o plas
o immune
o blastoma
o Score
o zy
p it
p ri
p ts
p ink
p rim
p son
p pend
p ret
p ersed
p bell
q c
r c
r ism
r pm
s h
s in
s el
s ues
s elves
t ou
t ated
t est
t arget
t pm
u ing
u tively
u ged
u gment
v a
v i
v at
v ent
v ari
v ascular
v ersed
w a
w e
w ent
w ide
w ry
w iring
x ts
y ro
y br
y ond
z a
z en
z czer
Â ±
Î ±
â į
Ġ X
Ġ [
Ġ hen
Ġ âĢĻ
Ġ 75
Ġ Xu
Ġ err
Ġ iCA
Ġ Yuen
Ġa ro
Ġa ch
Ġa ward
Ġa ugment
Ġa wry
in v
in ation
in ow
in ce
in ely
in berg
Ġt er
Ġt ight
Ġt em
Ġt urn
re cept
re present
at in
at ell
at ty
at ural
at dar
Ġc el
Ġc our
Ġc le
Ġc ount
Ġc ave
Ġc erv
Ġc rit
Ġc alls
on ical
he h
he p
he sive
he ck
en ed
en sion
en able
en berg
en ne
en vat
er ic
er ia
er ra
Ġs it
Ġs ym
Ġs een
Ġs ear
Ġs ide
an ge
an eous
an while
Ġp ul
Ġp ow
Ġp ap
Ġp ast
Ġp airs
Ġp seud
Ġo es
Ġo per
Ġo vari
Ġin ser
Ġin verse
Ġin efficient
al f
al per
al th
al ian
Ġan s
el e
el ines
el der
el mink
or ough
or ak
or tical
or ces
or fs
ed ele
ti ous
ti ary
ti des
Ġw arr
is w
is her
is ite
is ability
it ors
it ud
it ect
it och
Ġm ac
Ġm ach
Ġm arg
Ġm UC
Ġm ix
Ġm ake
Ġm ortal
ati tis
ig db
Ġf igure
Ġf unctional
Ġf resh
Ġf ash
Ġf ibrotic
Ġf gsea
Ġf luores
Ġ( âĢ
ar ised
ic a
ic y
ic in
ic es
ic ted
ic tor
ic tated
Ġd og
Ġd ays
Ġd one
Ġd riven
Ġd ots
Ġd ictated
res ist
ell a
Ġb rom
Ġb ys
Ġb yp
Ġb od
Ġb ase
Ġb catenin
Ġb esides
as p
as ting
as ise
as hi
20 21
20 13
20 19
Ġal together
Ġal igned
Ġal tered
ĠP ow
ĠP romot
ĠP Cs
ĠP eng
ĠP atients
ĠP uram
ĠP elly
ĠP egg
ĠP rism
Ġto bacco
Ġl envat
um ent
um ber
um vent
ation ally
am an
am ine
am inant
anc es
om ain
om ial
om edical
Ġth us
Ġth ir
Ġth yro
Ġth orough
our y
Ġh it
Ġh ur
Ġh and
Ġh ub
Ġh app
Ġh ij
Ġh ots
Ġh ybr
Ġh alf
et o
et ed
et ent
et heless
Ġpro gen
Ġpro of
Ġpro ble
Ġpro ced
Ġpro actively
un ds
un der
im um
im ear
ot o
ot al
le ag
le ver
ac es
ac tive
ĠC O
ĠC yt
ĠC han
ĠC yclooxygenase
ĠC haroentong
ĠC heck
ĠC orces
ul tivariate
ĠT yp
ĠT hes
ĠT umeh
ĠT LS
ĠT SS
ĠT issue
ĠT GCT
ĠT eij
si lent
Ġas terisk
ly ing
ly mp
Ġex cept
Ġex ists
Ġex emplar
Ġre le
Ġre per
Ġre ach
Ġre duced
Ġre combin
Ġre versed
se c
se e
se quently
Ġwe ights
Ġinf re
Ġinf ec
Ġtumour igen
tr ic
tr ate
Ġsu ff
ec ox
ec ret
ĠI s
ĠI RF
ĠI MPRES
us tered
us kal
us inow
Ġim it
id ase
il ed
ol ated
ter action
ter par
Ġfor ward
oc he
oc ellular
oc ortical
ate ment
her ry
rom box
mun ity
Ġres ear
Ġres em
Ġres olve
Ġres iding
Ġres tor
ur ately
ur ci
ur veillance
os o
Ġcon v
od o
od omain
iv ation
ator ial
ab il
ĠĠĠĠ ĠĠ
if t
if y
if uged
ch ors
Ġv igor
Ġst ated
Ġst em
Ġst aging
ap it
ap ing
ap lan
ad er
ad ing
ad ley
ad justed
ad jac
Ġis o
Ġis sues
Ġcom mer
Ġcom plete
Ġac t
Ġac ts
Ġac cess
qu ency
qu art
qu iet
te omic
ri er
ers ely
tiv es
tiv ated
ts ky
ĠM e
ĠM er
ĠM ark
ĠM CA
ĠM MP
ĠM SI
ĠM ICB
ĠM TOR
ĠM urci
Ġ1 76
ce eding
ran ge
alys ing
Ġcl ose
Ġcl ock
op rol
ĠN A
ĠN ano
ĠN usinow
ay aman
Ġor ches
ĠS D
ĠS he
ĠS un
ĠS av
ĠS han
ĠS ub
ĠS hal
ĠS want
ĠS ilent
ĠS urvival
ĠS TRIN
ĠS zczer
ĠS ica
ĠS ecret
ĠS ayaman
Ġanalys ing
Ġbe yond
ph rect
Ġad ds
Ġad opt
Ġg al
Ġg ain
Ġg over
Ġg oes
Ġg ives
Ġg dT
Ġprog ressive
og get
Ġsh aded
Ġsh ake
Ġsh aping
Ġtyp ical
Ġtyp ically
Ġrespon sive
up ffer
Ġde ploy
Ġass um
Ġass igned
Ġun like
Ġun met
Ġun rav
Ġun want
Ġun biased
Ġun kn
Ġen able
Ġen de
Ġen ables
In f
In iti
In cre
Ġtrans lation
Ġmod ulate
Ġmod elled
yt oid
ĠR ob
ĠR epresent
Ġsc transform
Ġbi ases
Ġbi obank
Ġcomp iled
cl ass
Ġshow c
Ġdis per
Ġdis sect
Ġdis persed
act ing
Ġ0 10
Ġ0 09
Ġwh ile
ogen y
Ġpath ological
00 2
00 4
00 6
Ġinter n
Ġinter pret
est ation
hen g
Ġne ural
Ġne phrect
Ġassoci ations
oun ds
oun ting
pec t
pec ially
Ġr ational
Ġr aw
Ġr ights
Ġr aise
Ġsub unit
Ġsub mit
ĠB oxplots
ĠB Ã¶ttcher
ĠB uechler
ĠB LCA
Ġch ains
Ġsur veillance
Ġsur gical
age al
Ġactiv ely
ep it
ep per
ĠH ou
ĠH RAS
ĠH AS
Ġpredic tions
Ġev ade
âĢĻ .
Ġco vering
Ġco hesive
ins on
cul ating
Ġmut ated
Ġdiff er
Ġdiff ers
ĠD ES
ĠD oes
ĠD unn
ĠD iverse
ĠD LBC
per ienced
ong st
olog ies
Ġhe rein
ox ed
ox plot
gh igh
ĠA I
ĠA s
ĠA u
ĠA ND
ĠA bd
ĠĠĠĠĠĠĠĠ Ċ
ĠĠĠĠĠĠĠĠ ĠĠĊ
ĠĠĠĠĠĠĠĠ ĠĊ
ĠĠĠĠĠĠĠĠ ĠĠĠĠĊ
ĠE REG
ĠE du
ĠE nsem
ĠE ppend
ĠE imear
Ġ2 7
Ġ2 8
Ġour selves
ill iam
ĠK a
Ġnot ed
Ġnot able
ĠF ast
ĠF eng
ĠF LT
ĠF ridman
ĠF ind
ĠF OLR
ĠF lies
Ġlow ly
Ġ200 7
ect in
ĠG PP
ĠG TP
ĠG alon
ĠG onÃ§alves
ĠG entles
ĠG BM
ĠG TF
RC A
av ing
ĠL AG
ĠL ibrary
ĠL GG
Ġfin d
Ġfin ally
ĠW T
ĠW ing
ĠW arn
ĠW ilcoxon
ĠW ellenstein
ĠW herry
Ġpl ays
Ġpl atel
fi xed
reg ion
Ġpo ol
ĠTME s
Ġper mis
Ġper fect
Ġper haps
Ġmedi ate
Ġeff ici
Ġab lated
Ġinhibit s
Ġinhibit ed
Ġcons ent
Ġcons orti
ĠIL Cs
Ġcan onical
ĠPD GFR
otyp e
bl ing
bl ack
Ġmulti focal
to ire
pro ximately
pro jects
pro liferative
Ġmo lec
Ġfe wer
Ġlymph oprol
han di
Ġline age
Ġline ages
mon ary
Ġnon e
Ġexam ine
Ġcont ent
Ġcont ours
Ġcont aminant
Ġindic ating
Ġindic ative
Ġinfiltr ates
FÎ ±
ders tanding
aj ect
Ġup per
ici al
ass ed
Ġcontr ary
Ġcontr asting
ia h
Ġvari es
As pirin
Ġ4 3
ĠO lymp
Ġpar adox
Ġpar affin
Ġover comes
Ġap plic
Ġap optotic
Ġdet ect
Ġproduc ed
Ġ5 23
Ġ5 31
uman n
Ġdef icient
ugh t
Ġam big
ort lever
Ġref lec
ge R
ms tr
ms igdb
Ġintr avasation
Ġy ou
Ġpres sure
Ġdown regul
Ġmultiple x
Al breng
RNA s
Ġse vere
Ġse minal
Ġrem ained
ĠTMB high
Ġcharacter ise
Ġcharacter ising
Ġidenti fies
Ġdes truc
Ġcol leag
Ġtr im
Ġtr ain
Ġtr ue
Ġtr ade
Ġtr ait
Ġtr aject
Ġlig ates
Ġdisc overed
Ġdisc ern
ub e
uster s
Ġacc es
Ġeffect ors
Ġregul ated
Ġregul ations
Ġnum bers
Ġext ends
Ġrel ies
000 1
Ġcarcin os
Ġcarcin ogen
Ġcontrib uting
Ġbenefit s
Ġextr avasation
Ġextr acting
13 3
ĠV S
Ġconf oun
Ġconf lic
Ġimportant ly
Ġexperim ent
10 4
ĠU CEC
Ġar g
Ġar te
Ġar ray
Ġheter ozy
Ġhypothes es
Ġhypothes ise
Ġpack ages
Ġdiver gence
Ġbas es
ĠPTIlow TIShigh
Ġgener ates
Ġadv ent
Ġappro pri
Ġtim es
Ġtim ing
Ġinte resting
Ġbin omial
Ġdire ctional
Ġrec apit
tan der
ĠNSCL Cs
ĠĠĠĠĠĠĠĠĠĠĠĠĠĠĠĠ Ċ
Ġran ged
Ġcur ve
Ġcur ves
Ġnod al
Ġunder go
Ġunder grad
Ġunder went
Ġunder lying
Ġend ocrine
ha emat
ha ham
pos es
Ġlocal ised
Ġrequ ires
Ġposi tions
Ġdeterm ined
11 4
IFN ghigh
Mc Granahan
Mc Grail
Mc Lane
Ġmetabol omic
Ġmetabol ite
Ġutil ised
An ti
An agnos
An alysing
Ġes cape
Ġes pecially
Ġop en
Ġop tions
Ġop posed
Ġle ast
lec ting
Ġplot ted
Ġplot ting
On ce
ma f
Ġav oid
Ġaut hors
Ġaut oimmune
Ġcent re
Ġprior ity
ord able
Ġdys plas
Ġdys regulation
Ġlack ing
ĠCh iossone
Ġconver t
Ġinclud es
crib ed
Ġmain t
plic ates
def ined
oinformatic s
antigen s
74 7
Ġep id
Ġfre quency
Ġprov ided
plet on
plet ely
ĠNF KB
Ġgre y
Ġdescrib e
Ġdescrib es
Ġcoll agen
CA N
CA Fs
ie ve
ie tic
Ġill um
ond rial
Ġsiz ed
Ġfit ness
Ġfac ility
Ġfocus ed
Ġexcl ude
Ġret urn
Ġimp ly
Ġimp air
Ġimp airs
Ġ19 86
Ġ19 83
Ġcoeff icient
Ġcentr ifuged
Ġantagon ised
Ġantagon ism
ĠJ AK
Ġsyn erg
Ġstimul atory
Ġstimul ates
Ġstimul ating
Ġfour th
Ġfil es
Ġnov o
Ġreve als
ĠID s
Ġsuppor ted
Ġdiscover ing
Ġdiscover ies
Ġestim ated
Ġestim ate
Ġchemok ine
Ch iossone
Ġtechn ology
Ġcoun terpar
Ġwid ening
ish n
Ġdr iving
Ġdam pen
respon der
respon sive
ĠThe se
Ġrepresent ed
Ġrepresent ative
trib uted
Ġinduc es
Ġcompr ised
ĠEx pression
Ġsuppress or
Ġsuppress ed
Ġrecruit ing
Ġleuk aem
ey lan
Ġ6 00
Ġ6 56
Ġcor respon
Ġcor rec
Ġcopy right
Ġbroad ly
Ġpros pect
Ġexp and
Ġconte xts
Ġclassi fication
Ġneg ated
Ġrati os
Ġendot heli
Ġconsider ing
Un derstanding
Ġ8 00
Ġaff ected
Ġaff lic
Ġaff ordable
Ġser um
Ġser ve
Ġser ial
org an
Ġma fto
Ġmin or
Ġmin imum
Ġfu elled
Ġinflu x
Ġinflu enced
Ġrestr ains
Ġrestr ictive
âĢĿ )
âĢĿ ,
âĢĿ ),
Ġorig in
Ġeng ages
Ġeng aging
Ġeng ulf
Ġvalid ated
Ġvalid ating
Ġcomput ationally
ĠAn giogenesis
ĠAn alysis
ĠAn gell
Ġoverl aps
Ġoverl apping
Ġsepar ate
Ġcoordin ates
Pro ject
zol ias
Ġins titute
Ġfl at
Ġful ly
arr is
Ġbar s
Ġbar cod
Ġprost ate
Ġsuper type
Ġassess ed
Ġscre ens
Ġfeature Counts
Ġincreasing ly
Ġaccur ate
Ġestablish ing
Ġpublic ations
Ġcontext ure
CP M
Lymph ocytes
Sh ar
Sh apes
Sh chors
mac ytoid
sc RNAseq
top han
Âµ m
Ġinst ances
Ġem ph
Ġem erg
Ġdel e
Ġdel ays
Ġdev ised
Ġhar bour
ĠTA BL
Ġexpos ing
Ġread s
Ġread ing
Ġacqu ired
Ġpatholog ist
Ġpatholog ies
Ġevalu able
Ġparticular ly
Ġappl ication
Ġphag ocytosis
Ġphag ocytic
centr ation
Ġarch itect
Ġexclu sively
Ġ199 7
Ġ199 9
Ġstandard ise
bottom ed
NF KB
Non etheless
Re ads
TP M
bi oinformatics
pend ed
Ġcre ates
Ġsqu ares
Ġtoler ate
Ġtoler ant
Ġlist ed
Ġclin icians
ĠWol f
ĠMEL s
GSE A
Ġdepend ed
Ġdepend ency
ĠĠĠĠĠĠĠĠĠĠĠĠĠĠĠĠĠĠĠĠĠĠĠĠ ĠĠĠĠĠĊ
Ġcollabor ators
ĠAll ison
Ġpancre as
26 747
Com pa
Com put
Gu o
Gu illiam
MM otion
cur ve
Ġcod on
Ġpur pose
Ġpur poses
Ġown ed
Ġbr isk
Ġnucle ic
Ġnucle otide
ĠIm mune
ĠIm munity
Ġgl mer
Ġshort ened
Ġmodul ation
Ġsubver t
Ġsubver ted
ĠBi omarker
ĠBi omedical
Ġchrom atin
Ġhep atitis
iking ly
Ġpoin ts
Ġpart ly
Ġintegr ated
Ġintegr ating
Ġrank ed
Ġelucid ating
Ġprostagland ins
Ġdigit ally
Ġbackgro unds
Ġhomeost atic
LR K
Me anwhile
Ne utrophils
Ne oantigen
TCR seq
pa rent
pa zolias
trom a
Ġed geR
Ġsl ide
arc oma
Ġdi ploid
Ġallow ed
Ġexist ence
Ġrep eated
Ġsus pended
ĠSTA R
Inflamm ation
ĠBa umann
ĠBRAF V
Ġstrateg y
ĠGu bin
Ġrout inely
Ġrobust ly
Ġthank s
Ġelicit s
Ġextend ed
Ġmanip ul
Ġsimilar ly
Ġskew ing
Ġcategor ical
Ġcategor ised
Cl inical
Cl usters
Mul tivariate
Mark ers
cher s
oy ama
Ġtren ds
Ġmim ic
Ġmim icking
Ġ(** *
Ġdou bt
Ġdou bling
Ġdil ution
Ġdil uted
asc ual
Ġloc ation
Ġrece ive
Ġrece ived
Ġrepro duc
oph ageal
Ġorg an
Ġmoder ately
Ġmodal ity
ĠBar plots
ĠGen ome
Ġperipher y
Ġconstit utively
Ġtrig ger
Ġdiscus s
Ġarm oury
Ġdirection s
Ġoptim ise
Ġsupernat ant
Ġdeliver ing
Where as
Ġhepat ocytes
Ġhepat ocyte
Ġconsensus TME
Ac ross
Ac tivated
Bar ry
Pre vious
Significant ly
des cribed
fer on
iam pazolias
tun ed
ÃŃ a
ÃŃ nez
Ġpe ak
Ġpep tide
Ġpep tides
Ġfore ign
Ġfore most
Ġalign ment
ama iah
TIL s
ĠTN FÎ±
Ġsust ained
Ġresour ce
Ġresour ces
Ġont ology
Ġont ogeny
opo ietic
Ġenabl ed
Ġenabl ing
Ġdisplay ed
Ġchapter s
Ġsurger y
Ġsurger ies
ĠLi u
Ġoutl ined
Ġchemot herapies
comp etent
Ġtryp sin
Ġtryp tophan
Ġgeneral isability
Ġsystematic ally
Ġinvas ion
Ġinvas ive
Ġsimpl istic
Green hough
Transcrip t
Transcrip tional
Ġprecurs or
Ġprecurs ors
)" ,
120 26747
De Nardo
GRC h
HN SC
IP seq
LI HC
LU SC
ME L
Mo lecular
Mod el
Qu ail
St atistical
Str ikingly
STA T
Up regulated
sign alling
sub type
Ġur gent
ĠGE O
Ġcou pled
Ġcul min
annot ations
Ġpron ounced
Ġinstr ument
Ġeicos anoids
Ġfun ding
ars heh
oul is
Ġdim in
asure ment
Ġaltern ative
ĠPt ger
Ġlab elled
Ġprop ensity
activ ation
ĠCl inical
Ġnic he
Ġassem bly
Ġextern al
Ġreaction s
Ġreduc ing
Ġrelev ant
Ġreason ed
tract ants
Ġvary ing
ĠMell or
ĠSt atement
ĠSal tz
Ġadren ocortical
Ġdeb ate
ĠRTK s
Ġscann er
Ġcomprehen sive
Ġrun ning
Ġradi ation
ĠBl adder
ĠHa as
ĠKr uskal
ĠGZ MB
ĠGraph Pad
Ġquadr ant
Ġpertur bations
Ġconscrip ted
Ġatten uate
Ġincom pletely
Ġinconsist ently
Ġelim inate
Ġremod elling
Ġsecret ome
Ġmyof ibroblasts
Ġmanif estation
Ġmicros atell
Ġcommonal ity
Ġtimep oints
Ġexplo ited
Ġinvolve ment
Ġhistor ical
ĠChar les
Ġchemoat tractants
Ġequival ent
Ġgrant ed
Ġgrad ually
Ġcirc umvent
Ġembed ded
Ġgli oblastoma
Ġphosphopro teins
Ġdiagnos is
Multi ple
Ġpersonal ised
Ġgranul ocytes
Ġincorpor ate
Ġanticip ated
Ġmagn ification
Ġsuscepti ble
-/ -
Amid st
Bot h
Cam pbell
Cir culating
Cox PH
Dv orak
Dann enberg
Feld man
Gor off
Germ ain
Garc ÃŃa
Hom o
Hake em
Le e
Law rence
My eloid
MTA B
Mart ÃŃnez
Num erous
New man
Phen oScore
Platel ets
Ram ilowski
Riz vi
Sm ith
Spar mann
Ta ube
Ther mo
Top alian
Tem pleton
Ul timately
Wh ilst
Wall is
Zare tsky
bar amaiah
bbs rc
cist arget
canon ical
det ection
divid ed
fl oxed
fast qc
gt f
gos ity
no ise
oly tic
sel ective
vascular isation
âį º
Ġhen ce
Ġerr ors
Ġaro und
Ġach ieve
Ġter tiary
Ġtight ly
recept or
Ġcel ecox
Ġcour se
Ġcave at
Ġcerv ical
Ġcrit eria
enne quart
Ġsit u
Ġsym bols
Ġsear ched
Ġpul monary
Ġpow ered
Ġpap ill
Ġoes ophageal
Ġovari an
Ġinser tions
itud inal
itoch ondrial
Ġmac ro
Ġmach ine
Ġmarg in
Ġmix ed
Ġmortal ity
Ġfash ion
Ġfluores cent
Ġdog ma
resist ant
Ġbrom odomain
Ġbys tander
Ġbyp ass
ĠPegg s
Ġlenvat inib
Ġthir d
Ġthyro id
Ġhur dle
Ġhapp ening
Ġhij ack
Ġhots p
Ġhybr id
Ġprogen itors
Ġproble m
ĠChan ge
ĠCheck mate
ĠTyp e
ĠTSS s
ĠTeij eira
Ġreper toire
Ġrecombin ant
Ġinfec tious
Ġtumourigen esis
Ġsuff icient
rombox ane
Ġresear chers
Ġresem ble
Ġvigor ously
adjac ent
Ġcommer cial
ĠMurci ano
Ġclock wise
Ġorches trate
ĠSav ill
ĠShan non
ĠSub baramaiah
ĠShal apour
ĠSwant on
ĠSTRIN G
ĠSzczer ba
ogget to
Ġdeploy ed
Ġunrav el
Ġunwant ed
Ġunkn own
Ġende avoured
Initi ally
Incre asing
ĠRepresent ative
Ġdisper sion
Ġnephrect omy
Ġrational e
Ġsubmit ted
ĠDES eq
ĠAbd el
ĠEdu ardo
ĠEppend orfs
ĠFast QC
ĠFind Markers
ĠGTP ase
ĠWarn er
Ġperfect ly
Ġeffici ently
Ġmolec ule
Ġlymphoprol iferative
ĠOlymp us
Ġambig uous
Ġreflec ts
Albreng ues
Ġdestruc tion
Ġcolleag ues
Ġtrait s
Ġdiscern ible
Ġheterozy gosity
Ġappropri ate
Ġundergrad uate
haham atdar
Anagnos tou
Ġcounterpar ts
Ġ656 0
Ġendotheli um
Ġmafto ols
Ġharbour ing
ĠTABL ES
Ġarchitect ure
Compa red
Comput ational
Guilliam s
Ġmicrosatell ite
Ġcelecox ib
