{"<s>":0,"<pad>":1,"</s>":2,"<unk>":3,"<mask>":4,"!":5,"\"":6,"#":7,"$":8,"%":9,"&":10,"'":11,"(":12,")":13,"*":14,"+":15,",":16,"-":17,".":18,"/":19,"0":20,"1":21,"2":22,"3":23,"4":24,"5":25,"6":26,"7":27,"8":28,"9":29,":":30,";":31,"<":32,"=":33,">":34,"?":35,"@":36,"A":37,"B":38,"C":39,"D":40,"E":41,"F":42,"G":43,"H":44,"I":45,"J":46,"K":47,"L":48,"M":49,"N":50,"O":51,"P":52,"Q":53,"R":54,"S":55,"T":56,"U":57,"V":58,"W":59,"X":60,"Y":61,"Z":62,"[":63,"\\":64,"]":65,"^":66,"_":67,"`":68,"a":69,"b":70,"c":71,"d":72,"e":73,"f":74,"g":75,"h":76,"i":77,"j":78,"k":79,"l":80,"m":81,"n":82,"o":83,"p":84,"q":85,"r":86,"s":87,"t":88,"u":89,"v":90,"w":91,"x":92,"y":93,"z":94,"{":95,"|":96,"}":97,"~":98,"¡":99,"¢":100,"£":101,"¤":102,"¥":103,"¦":104,"§":105,"¨":106,"©":107,"ª":108,"«":109,"¬":110,"®":111,"¯":112,"°":113,"±":114,"²":115,"³":116,"´":117,"µ":118,"¶":119,"·":120,"¸":121,"¹":122,"º":123,"»":124,"¼":125,"½":126,"¾":127,"¿":128,"À":129,"Á":130,"Â":131,"Ã":132,"Ä":133,"Å":134,"Æ":135,"Ç":136,"È":137,"É":138,"Ê":139,"Ë":140,"Ì":141,"Í":142,"Î":143,"Ï":144,"Ð":145,"Ñ":146,"Ò":147,"Ó":148,"Ô":149,"Õ":150,"Ö":151,"×":152,"Ø":153,"Ù":154,"Ú":155,"Û":156,"Ü":157,"Ý":158,"Þ":159,"ß":160,"à":161,"á":162,"â":163,"ã":164,"ä":165,"å":166,"æ":167,"ç":168,"è":169,"é":170,"ê":171,"ë":172,"ì":173,"í":174,"î":175,"ï":176,"ð":177,"ñ":178,"ò":179,"ó":180,"ô":181,"õ":182,"ö":183,"÷":184,"ø":185,"ù":186,"ú":187,"û":188,"ü":189,"ý":190,"þ":191,"ÿ":192,"Ā":193,"ā":194,"Ă":195,"ă":196,"Ą":197,"ą":198,"Ć":199,"ć":200,"Ĉ":201,"ĉ":202,"Ċ":203,"ċ":204,"Č":205,"č":206,"Ď":207,"ď":208,"Đ":209,"đ":210,"Ē":211,"ē":212,"Ĕ":213,"ĕ":214,"Ė":215,"ė":216,"Ę":217,"ę":218,"Ě":219,"ě":220,"Ĝ":221,"ĝ":222,"Ğ":223,"ğ":224,"Ġ":225,"ġ":226,"Ģ":227,"ģ":228,"Ĥ":229,"ĥ":230,"Ħ":231,"ħ":232,"Ĩ":233,"ĩ":234,"Ī":235,"ī":236,"Ĭ":237,"ĭ":238,"Į":239,"į":240,"İ":241,"ı":242,"Ĳ":243,"ĳ":244,"Ĵ":245,"ĵ":246,"Ķ":247,"ķ":248,"ĸ":249,"Ĺ":250,"ĺ":251,"Ļ":252,"ļ":253,"Ľ":254,"ľ":255,"Ŀ":256,"ŀ":257,"Ł":258,"ł":259,"Ń":260,"Ġa":261,"in":262,"Ġt":263,"re":264,"at":265,"Ġc":266,"on":267,"he":268,"en":269,"er":270,"Ġs":271,"an":272,"Ġp":273,"Ġo":274,"Ġin":275,"es":276,"al":277,"Ġan":278,"el":279,"or":280,"ed":281,"Ġthe":282,"ti":283,"Ġw":284,"is":285,"ro":286,"Ġe":287,"Ġof":288,"Ġand":289,"it":290,"ing":291,"Ġm":292,"ati":293,"ig":294,"Ġf":295,"Ġ(":296,"ar":297,"ic":298,"ou":299,"Ġd":300,"res":301,"ell":302,"Ġb":303,"as":304,"20":305,"Ġal":306,"ent":307,"ĠĠ":308,"Ġcell":309,"ĠP":310,"Ġto":311,"Ġl":312,"Ġ20":313,"um":314,"ation":315,"am":316,"anc":317,"om":318,"Ġth":319,"Ġet":320,"our":321,"TI":322,".,":323,"Ġh":324,"et":325,"umour":326,"Ġpro":327,").":328,"un":329,"ith":330,"im":331,"ot":332,"le":333,"ac":334,"Ġwith":335,"ĠPTI":336,"ĠC":337,"ul":338,"ĠT":339,"Ġ201":340,"tion":341,"ancer":342,"ign":343,"si":344,"ow":345,"gen":346,"ve":347,"Ġn":348,"Ġas":349,"ly":350,"Ġex":351,"ure":352,"Ġre":353,"se":354,"Ġwe":355,"Ġinf":356,"Ġtumour":357,"Ġsign":358,"tr":359,"Ġsu":360,"ec":361,"Ġthat":362,"ĠI":363,"Ġcancer":364,"us":365,"lam":366,"ated":367,"Ġim":368,"lamm":369,"id":370,"Ġcells":371,"ut":372,"Ġinflamm":373,"il":374,"ol":375,"ter":376,"Ġfor":377,"oc":378,"ate":379,"ev":380,"her":381,"igh":382,"rom":383,"pres":384,"mun":385,"Ġres":386,"Ġgen":387,"ur":388,"os":389,"ys":390,"yp":391,"Ġcon":392,"od":393,"sion":394,"iv":395,"Ġimmun":396,"ator":397,"ity":398,"ab":399,"Ġwere":400,"ĠĠĠĠ":401,"if":402,"ib":403,"atient":404,"ch":405,"Ġv":406,"Ġst":407,"Ġsignat":408,"ap":409,"red":410,"ag":411,"ant":412,"Ġpatient":413,"tic":414,"Ġfrom":415,"Ġby":416,"ad":417,"Ġis":418,"Ġcom":419,"Ġexpres":420,"all":421,"Ġac":422,"pl":423,"qu":424,"te":425,"ri":426,"ers":427,"ment":428,"Ġare":429,"ine":430,"tiv":431,"Ġwas":432,"The":433,"Ġon":434,"ore":435,"ts":436,"atory":437,"âĢ":438,"ĠM":439,"Ġdat":440,"Ġ1":441,"evel":442,"ce":443,"Ġtumours":444,"Ġinflammation":445,"ist":446,"igure":447,"ran":448,"Figure":449,"pon":450,"alys":451,"Ġcl":452,"op":453,"Ġexpression":454,"ĠN":455,"ay":456,"Ġor":457,"ther":458,"ĠS":459,"Ġanalys":460,"ĠĠĊ":461,"ding":462,"Ġbe":463,"ph":464,"Ġsignature":465,"Ġinflammatory":466,"Ġad":467,"ple":468,"Ġimmune":469,"ations":470,"Ġhigh":471,"Ġus":472,"ath":473,"ors":474,"ark":475,"ted":476,"Ġg":477,"Ġprog":478,"Ġind":479,"og":480,"ain":481,"ical":482,"ĠCD":483,"Ġ2018":484,"CB":485,"Ġpatients":486,"Ġsh":487,"ines":488,"rel":489,"Ġtyp":490,"ĠICB":491,"Ġrespon":492,"up":493,"Ġtran":494,"alling":495,"OX":496,"Ġde":497,"ir":498,"Ġass":499,"st":500,"Ġun":501,"Ġlevel":502,"Ġsignalling":503,"Ġgene":504,"ff":505,"Ġen":506,"In":507,"orm":508,"tive":509,"por":510,"Ġtrans":511,"ue":512,"uc":513,"ures":514,"ates":515,"Ġmod":516,"Ġanalysis":517,"ren":518,"ance":519,"ver":520,"ase":521,"orrel":522,"ous":523,"ĠCOX":524,"yt":525,"ĠR":526,"Ġsc":527,"Ġbi":528,"ari":529,"oci":530,"etw":531,"Ġdata":532,"),":533,"ess":534,"ific":535,"ely":536,"Ġha":537,"Ġval":538,"Ġcomp":539,"cl":540,"cri":541,"Ġthis":542,"Ġshow":543,"crip":544,"Ġdis":545,"act":546,"Ġ0":547,"Ġwh":548,"ds":549,"ud":550,"ogen":551,"Ġpath":552,"Ġanti":553,"Ġ2020":554,"Ġgenes":555,"Ġlevels":556,"00":557,"Ġinter":558,"tumour":559,"Ġcorrel":560,"Ġ2019":561,"able":562,"Ġtranscrip":563,"Th":564,"der":565,"Ġpred":566,"est":567,"Ġsuch":568,"hen":569,"Ġne":570,"Ġassoci":571,"Ġlines":572,"ĠTM":573,"hib":574,"oun":575,"Ġme":576,"Ġhave":577,"NA":578,"pec":579,"Ġr":580,"Ġsub":581,"ich":582,"FN":583,"ym":584,"ĠB":585,"Ġch":586,"edi":587,"iss":588,"ros":589,"ies":590,"nos":591,"Ġsur":592,"age":593,"Ġactiv":594,"Ġmodel":595,"ep":596,"low":597,"Ġthere":598,"ues":599,"ĠH":600,"Ġpan":601,"ally":602,"Ġmet":603,"Ġpredic":604,"Ġev":605,"omark":606,"âĢĻ":607,"Ġtiss":608,"Ġco":609,"Ġsam":610,"Ġreg":611,"CL":612,"GE":613,"ins":614,"enti":615,"Ġprognos":616,"Ġtypes":617,"cul":618,"igen":619,"Ġmut":620,"iff":621,"Ġdiff":622,"ĠD":623,"Ġusing":624,"Ġbiomark":625,"per":626,"ĠâĢ":627,"ong":628,"Ġthese":629,"ting":630,"ĠTI":631,"olog":632,"Ġhe":633,"Ġfact":634,"21":635,"eren":636,"ox":637,"th":638,"Ġinhib":639,"Ġresponse":640,"de":641,"gh":642,"ik":643,"ĠA":644,"Ġmul":645,"Ġpathw":646,"form":647,"so":648,"ĠĠĠĠĠĠĠĠ":649,"Ġsignatures":650,"ĠE":651,"Ġstr":652,"ĠIFN":653,"cancer":654,"Ġ2":655,"ence":656,"Ġour":657,"Ġalso":658,"ever":659,"ival":660,"igenic":661,"high":662,"roph":663,"ill":664,"tumourigenic":665,"een":666,"ition":667,"ĠK":668,"ating":669,"Ġnot":670,"Ġwhich":671,"ĠâĢĺ":672,"ĠF":673,"Ġother":674,"Ġlow":675,"Ġ2021":676,"ples":677,"ear":678,"Ġit":679,"ork":680,"Ġbetw":681,"ast":682,"aset":683,"Ġ200":684,"ect":685,"Ġtissue":686,"Ġbetween":687,"ĠG":688,"action":689,"Ġdifferen":690,"RC":691,"av":692,"Ġqu":693,"inical":694,"ĠIFNg":695,"Ġ3":696,"ĠL":697,"Ġpre":698,"Ġfin":699,"omic":700,"ach":701,"Ġ2017":702,"Ġstud":703,"ages":704,"Ġadd":705,"ary":706,"Ġdataset":707,"vival":708,"ĠW":709,"Ġpl":710,"Ġwhe":711,"Ġmore":712,"ack":713,"duc":714,"fi":715,"mot":716,"ual":717,"istic":718,"ents":719,"reg":720,"end":721,"Ġpo":722,"ative":723,"ĠTME":724,"ross":725,"Ġsurvival":726,"Ġfactors":727,"Ġ=":728,"Ġper":729,"Ġmedi":730,"Ġbiomarkers":731,"RCC":732,"ised":733,"Ġeff":734,"oma":735,"ymph":736,"cRCC":737,"fore":738,"Ġab":739,"Ġresist":740,"Ġclinical":741,"Ġvalues":742,"This":743,"Ġassociated":744,"Ġinhibit":745,"RA":746,"ok":747,"ĠĊ":748,"hes":749,"ensi":750,"Ġincl":751,"Ġcons":752,"We":753,"Ġat":754,"Ġphen":755,"tional":756,"ĠIL":757,"Ġsamples":758,"Ġcan":759,"tim":760,"ĠPD":761,"otyp":762,"iltr":763,"These":764,"Ġused":765,"bl":766,"ression":767,"Ġacross":768,"Ġmulti":769,"Ġfinding":770,"to":771,"ĠccRCC":772,"Ġhow":773,"port":774,"pro":775,"Ġmo":776,"Ġmay":777,"Ġfe":778,"Ġsup":779,"ost":780,"ificant":781,"Ġphenotyp":782,"ays":783,"oin":784,"Ġro":785,"Ġcyt":786,"Ġsec":787,"Ġprote":788,"rap":789,"Ġdevel":790,"Ġlymph":791,"ome":792,"trins":793,"ocyt":794,"ators":795,"Ġinteraction":796,"Ġresistance":797,"Ġdevelop":798,"bin":799,"han":800,"ved":801,"Ġwell":802,"arg":803,"Ġline":804,"Ġthan":805,"ular":806,"own":807,"Ġgro":808,"Ġfindings":809,"trinsic":810,"ip":811,"ion":812,"mon":813,"Ġeach":814,"ased":815,"ower":816,"Ġprognostic":817,"ct":818,"ores":819,"ĠPTIhigh":820,"Ġ2015":821,"ound":822,"ocytes":823,"ef":824,"gg":825,"ld":826,"oid":827,"intrinsic":828,"Ġtre":829,"and":830,"Ġpromot":831,"Ġnon":832,"Ġexam":833,"Ġcont":834,"Ġindic":835,"Ġmeas":836,"Ġmutations":837,"To":838,"pt":839,"Ġcar":840,"anti":841,"Ġout":842,"Ġinc":843,"Ġsignificant":844,"ight":845,"Ġexpress":846,"Ġu":847,"Ġche":848,"Ġsel":849,"Ġpower":850,"Ġbl":851,"other":852,"Ġinfiltr":853,"ollow":854,"ivid":855,"Ġdise":856,"Ġwhether":857,"FÎ":858,"ders":859,"ex":860,"erm":861,"atic":862,"ards":863,"plement":864,"Ġtype":865,"Ġscores":866,"Ġmodels":867,"RAS":868,"aj":869,"uding":870,"ĠFigure":871,"Ġup":872,"ici":873,"ass":874,"lecul":875,"acroph":876,"Ġcontr":877,"ogenic":878,"ĠTIL":879,"Ġfeat":880,"Ġdisease":881,"For":882,"XCL":883,"ction":884,"cess":885,"ia":886,"man":887,"Ġ2016":888,"iver":889,"Ġvari":890,"ividual":891,"As":892,"typ":893,"Ġ4":894,"ĠO":895,"inant":896,"Ġpar":897,"Ġover":898,"ould":899,"abl":900,"Ġpredictive":901,"ike":902,"Ġpathway":903,"Ġdifferent":904,"regul":905,"Ġincluding":906,"ose":907,"Ġap":908,"Ġph":909,"Ġfollow":910,"Ġdet":911,"Ġcombin":912,"cept":913,"ĠNK":914,"etwork":915,"Ġshown":916,"Ġtranscript":917,"ĠKRAS":918,"ov":919,"wards":920,"Ġid":921,"Ġtheir":922,"Ġtherap":923,"Ġben":924,"Ġtowards":925,"Ġhas":926,"Ġproduc":927,"Ġmolecul":928,"cent":929,"eu":930,"Ġ5":931,"Ġk":932,"Ġel":933,"Ġtest":934,"ise":935,"ard":936,"uman":937,"Ġnetwork":938,"Ġindividual":939,"Ġdef":940,"ormal":941,"pecific":942,"ential":943,"Ġaddition":944,"fied":945,"iz":946,"ugh":947,"Ġam":948,"hed":949,"Ġall":950,"ĠĠĠĊ":951,"ĠTC":952,"arget":953,"HC":954,"com":955,"ens":956,"ort":957,"isk":958,"Ġmacroph":959,"amet":960,"Ġref":961,"seq":962,"Ġresul":963,"Ġimmunity":964,"ade":965,"Ġbeen":966,"Ġtranscriptional":967,"Ġmediators":968,"ES":969,"LA":970,"ge":971,"ms":972,"enc":973,"Ġintr":974,"rough":975,"arac":976,"ough":977,"Ġhuman":978,"tivity":979,"ology":980,"cin":981,"ful":982,"ire":983,"ru":984,"Ġy":985,"Ġpres":986,"Ġob":987,"Ġdown":988,"ently":989,"tions":990,"tively":991,"Ġcorrelated":992,"Ġactivity":993,"Ġprognosis":994,"Ġstudy":995,"Ġmultiple":996,"Ġexample":997,"Ġincre":998,"otherap":999,"aracter":1000,"Al":1001,"GA":1002,"RNA":1003,"ak":1004,"ive":1005,"jus":1006,"over":1007,"ses":1008,"atment":1009,"Ġse":1010,"Ġset":1011,"ang":1012,"Ġinto":1013,"ĠCXCL":1014,"Ġrem":1015,"There":1016,"ĠTMB":1017,"Ġcharacter":1018,"ĠTIS":1019,"Ġpathways":1020,"Ġits":1021,"ensitivity":1022,"Ġsecre":1023,"Ġfeatures":1024,"Ġidenti":1025,"ail":1026,"ber":1027,"lo":1028,"yn":1029,"ree":1030,"onal":1031,"Ġpot":1032,"Ġdes":1033,"Ġprocess":1034,"sive":1035,"romot":1036,"ained":1037,"ariate":1038,"endent":1039,"Ġpoor":1040,"Ġdevelopment":1041,"Ġmeasure":1042,"12":1043,"ves":1044,"Ġcol":1045,"ands":1046,"als":1047,"ory":1048,"Ġbot":1049,"und":1050,"Ġrecept":1051,"Ġsugg":1052,"Ġimport":1053,"Ġcompa":1054,"Ġsubtyp":1055,"Ġprev":1056,"Ġfollowing":1057,"05":1058,"DR":1059,"ck":1060,"promot":1061,"ution":1062,"Ġtr":1063,"Ġtarget":1064,"eld":1065,"Ġthen":1066,"til":1067,"Ġlig":1068,"Ġlog":1069,"Ġthrough":1070,"Ġhad":1071,"unction":1072,"Ġ2014":1073,"ute":1074,"ocy":1075,"ĠME":1076,"ĠRNA":1077,"Ġvalue":1078,"Ġdisc":1079,"Ġactivation":1080,"Ġdatasets":1081,"Ġinhibitors":1082,"Ġgroup":1083,"plementary":1084,"PGE":1085,"ub":1086,"ined":1087,"atumour":1088,"Ġmy":1089,"ĠPGE":1090,"uster":1091,"Ġimmunotherap":1092,"Ġacc":1093,"Ġantigen":1094,"everal":1095,"Ġeffect":1096,"Ġselec":1097,"Cs":1098,"GS":1099,"fy":1100,"mark":1101,"ºB":1102,"Ġmec":1103,"ominant":1104,"Ġcancers":1105,"Ġresponses":1106,"Ġunc":1107,"portion":1108,"Ġregul":1109,"ological":1110,"Ġstrati":1111,"oint":1112,"FÎºB":1113,"Ġbenef":1114,"Ġintratumour":1115,"promoting":1116,"Ġmechan":1117,"ious":1118,"medi":1119,"not":1120,"inib":1121,"elan":1122,"Ġwill":1123,"Ġear":1124,"ress":1125,"Ġbut":1126,"Ġthose":1127,"Ġnum":1128,"Ġnormal":1129,"Ġext":1130,"Ġexper":1131,"Ġrel":1132,"utroph":1133,"urther":1134,"Ġonc":1135,"Ġcluster":1136,"Ġprogression":1137,"000":1138,"Thus":1139,"Ġmean":1140,"Ġtherefore":1141,"Ġrole":1142,"Ġcarcin":1143,"Ġcontrib":1144,"ocyte":1145,"Ġbenefit":1146,"utrophil":1147,"ial":1148,"ric":1149,"ink":1150,"Ġcap":1151,"Ġsp":1152,"eline":1153,"isation":1154,"ita":1155,"Ġder":1156,"Ġhyp":1157,"Ġproportion":1158,"lear":1159,"Ġextr":1160,"ock":1161,"Ġstat":1162,"ĠNFÎºB":1163,"Ġadjus":1164,"upplementary":1165,"Ġstudies":1166,"Ġperform":1167,"Ġcytok":1168,"ajor":1169,"Ġproduction":1170,"ĠTCGA":1171,"Ġmacrophages":1172,"par":1173,"ram":1174,"inf":1175,"Ġwork":1176,"ingle":1177,"ocal":1178,"ibro":1179,"Ġhighly":1180,"irst":1181,"ogene":1182,"Ġcorrelation":1183,"ependent":1184,"Ġconsist":1185,"ĠOS":1186,"Ġboth":1187,"Ġintratumoural":1188,"AP":1189,"GF":1190,"pear":1191,"Ġman":1192,"Ġmic":1193,"Ġmajor":1194,"ains":1195,"Ġscore":1196,"Ġmutation":1197,"Ġphenotype":1198,"Ġcheck":1199,"Ġupregul":1200,"pearman":1201,"13":1202,"PE":1203,"em":1204,"tre":1205,"ĠV":1206,"Ġag":1207,"Ġcal":1208,"onav":1209,"Ġwould":1210,"Ġ2012":1211,"ĠIn":1212,"Ġconf":1213,"Ġdep":1214,"stre":1215,"Ġcompar":1216,"Ġneutrophil":1217,"Ġmeth":1218,"Ġevas":1219,"Ġcoh":1220,"Ġregression":1221,"Ġstrong":1222,"Ġques":1223,"Ġtranscriptomic":1224,"Ġsequ":1225,"Ġimportant":1226,"Ġcompared":1227,"elanoma":1228,"Ġexperim":1229,"onavita":1230,"**":1231,"10":1232,"FPE":1233,"xt":1234,"ĠU":1235,"Ġar":1236,"ately":1237,"Ġsingle":1238,"out":1239,"Ġdist":1240,"othes":1241,"Ġwithin":1242,"sition":1243,"ility":1244,"press":1245,"ived":1246,"opul":1247,"Ġheter":1248,"Ġtreated":1249,"Ġpromote":1250,"Ġsignificantly":1251,"Ġblock":1252,"Ġprevious":1253,"ĠMEK":1254,"Ġimmunotherapy":1255,"Ġmechanis":1256,"Ġhypothes":1257,"Ġcalcul":1258,"stream":1259,"SC":1260,"ew":1261,"of":1262,"point":1263,"ser":1264,"uous":1265,"hel":1266,"Ġseveral":1267,"Ġpack":1268,"Ġpopul":1269,"Ġmost":1270,"Ġdiver":1271,"Ġbas":1272,"Ġlink":1273,"Ġhig":1274,"Ġprof":1275,"ĠPTIlow":1276,"ĠCon":1277,"ĠCancer":1278,"Ġgener":1279,"uring":1280,"Ġcommon":1281,"tivariate":1282,"Ġclonal":1283,"Ġadv":1284,"Ġunders":1285,"Ġshowed":1286,"Ġprotein":1287,"Ġappro":1288,"Ġligands":1289,"Ġgroups":1290,"Ġoncogenic":1291,"ibrobl":1292,"Ġmethod":1293,"PD":1294,"PTI":1295,"by":1296,"Ġest":1297,"Ġtim":1298,"ature":1299,"Ġinte":1300,"ouse":1301,"Ġbin":1302,"Ġtop":1303,"idence":1304,"iven":1305,"Ġstates":1306,"Ġstage":1307,"aded":1308,"ĠMAP":1309,"Ġmetast":1310,"ĠFFPE":1311,"Ġlymphocytes":1312,"Ġtreatment":1313,"ablis":1314,"Ġmolecular":1315,"rug":1316,"Ġcharacteristic":1317,"Ġsuggest":1318,"Ġsequenc":1319,"Ġestablis":1320,"25":1321,"SCL":1322,"ron":1323,"rim":1324,"str":1325,"wo":1326,"inuous":1327,"Ġpat":1328,"ite":1329,"itch":1330,"Ġmon":1331,"Ġfirst":1332,"Ġdire":1333,"otox":1334,"Ġ2013":1335,"Ġrec":1336,"tern":1337,"Ġassociation":1338,"Ġpanel":1339,"Ġabund":1340,"Ġphenotypes":1341,"ions":1342,"Ġexpressed":1343,"icient":1344,"Ġtherapy":1345,"Ġresults":1346,"Ġobser":1347,"Ġpotential":1348,"Ġearly":1349,"Ġcheckpoint":1350,"Ġpackage":1351,"otoxic":1352,"hot":1353,"iqu":1354,"tan":1355,"Ġ9":1356,"Ġtri":1357,"Ġfunction":1358,"Ġcellular":1359,"ĠCP":1360,"ĠNSCL":1361,"ĠSensitivity":1362,"Ġhighl":1363,"Ġprogram":1364,"Ġindependent":1365,"Ġpredict":1366,"ĠĠĠĠĠĠĠĠĠĠĠĠĠĠĠĠ":1367,"earch":1368,"Ġcytotoxic":1369,"Ġdefined":1370,"RNAseq":1371,"Ġextrac":1372,"Ġstatus":1373,"Ġcohort":1374,"Ġheterogene":1375,"ĠMAPK":1376,"By":1377,"gor":1378,"specific":1379,"Ġ-":1380,"Ġran":1381,"Ġtwo":1382,"Ġcur":1383,"one":1384,"Ġsys":1385,"Ġspec":1386,"ests":1387,"ties":1388,"Ġfound":1389,"Ġdrug":1390,"ĠPro":1391,"umab":1392,"Ġprol":1393,"Ġnod":1394,"Ġexpl":1395,"ide":1396,"Ġform":1397,"abol":1398,"tem":1399,"ĠMelanoma":1400,"Ġunder":1401,"Ġend":1402,"Ġbiomarker":1403,"Ġheal":1404,"Ġmultivariate":1405,"Ġdifferenti":1406,"Therefore":1407,"Ġreceptors":1408,"Ġadjusted":1409,"Ġcalculated":1410,"Ġcharacteristics":1411,"Bonavita":1412,"CM":1413,"CR":1414,"ha":1415,"ove":1416,"pos":1417,"ubl":1418,"wth":1419,"zer":1420,"esis":1421,"align":1422,"Ġannot":1423,"Ġfi":1424,"asts":1425,"Ġlocal":1426,"ung":1427,"Ġno":1428,"Ġrequ":1429,"lamed":1430,"present":1431,"ably":1432,"ifer":1433,"Ġshowing":1434,"Ġneo":1435,"CLE":1436,"though":1437,"Ġaddress":1438,"Ġwhere":1439,"Ġposi":1440,"Ġhowever":1441,"Ġproteins":1442,"Ġpowerful":1443,"Ġdeterm":1444,"Ġyet":1445,"Ġdownlo":1446,"Ġremains":1447,"Ġsubtypes":1448,"Ġnumber":1449,"Ġspati":1450,"Ġneutrophils":1451,"ibroblasts":1452,"ĠNSCLC":1453,"Ġsystem":1454,"Ġdownloaded":1455,"11":1456,"Con":1457,"IFN":1458,"Mc":1459,"ject":1460,"ood":1461,"osition":1462,"ten":1463,"Ġcas":1464,"Ġspecific":1465,"Ġpubl":1466,"eloid":1467,"ison":1468,"rol":1469,"Ġmark":1470,"Ġfurther":1471,"ication":1472,"ellular":1473,"ĠPT":1474,"Ġlike":1475,"Ġthree":1476,"Ġrepor":1477,"ech":1478,"Ġconsi":1479,"ivers":1480,"quently":1481,"Inde":1482,"hibit":1483,"Ġmetabol":1484,"Ġinhibition":1485,"timul":1486,"Ġgrowth":1487,"Ġindicate":1488,"Ġutil":1489,"Ġpresence":1490,"Ġdistin":1491,"Ġdiverse":1492,"Ġhigher":1493,"Indeed":1494,"18":1495,"An":1496,"CD":1497,"Our":1498,"bod":1499,"cr":1500,"lu":1501,"like":1502,"Î³":1503,"Ġes":1504,"Ġess":1505,"Ġop":1506,"Ġinv":1507,"ising":1508,"Ġle":1509,"Ġlung":1510,"lec":1511,"ects":1512,"ĠIHC":1513,"ust":1514,"Ġimages":1515,"idate":1516,"Ġstrom":1517,"tical":1518,"allmark":1519,"rior":1520,"Ġclass":1521,"opy":1522,"Ġanalysed":1523,"aining":1524,"rent":1525,"Ġcomposition":1526,"ogenesis":1527,"Ġquanti":1528,"Ġplot":1529,"field":1530,"Ġuse":1531,"Ġinfiltration":1532,"Ġmolecules":1533,"Ġamong":1534,"Ġstratified":1535,"Ġconsistent":1536,"Ġmechanisms":1537,"Ġpopulations":1538,"Ġadvanc":1539,"Ġdistinct":1540,"Ġessential":1541,"1000":1542,"On":1543,"TA":1544,"br":1545,"cod":1546,"eff":1547,"ma":1548,"set":1549,"vely":1550,"wise":1551,"xis":1552,"Ġav":1553,"Ġaut":1554,"Ġcent":1555,"Ġprior":1556,"ord":1557,"Ġfibroblasts":1558,"Ġdys":1559,"asis":1560,"Ġalter":1561,"Ġlack":1562,"Ġhist":1563,"ether":1564,"otzer":1565,"ĠCh":1566,"ected":1567,"urine":1568,"oss":1569,"Ġconver":1570,"Ġvia":1571,"related":1572,"Ġtransform":1573,"ĠRes":1574,"Ġantibod":1575,"pective":1576,"Ġchron":1577,"Ġtissues":1578,"avour":1579,"Ġinclud":1580,"ametinib":1581,"Ġidentify":1582,"Ġmyeloid":1583,"mediated":1584,"Ġcarcinoma":1585,"Ġcontribute":1586,"Ġtime":1587,"Ġsequencing":1588,"itchfield":1589,"Ġobserved":1590,"crib":1591,"Ġchronic":1592,"Supplementary":1593,"air":1594,"based":1595,"off":1596,"ry":1597,"rich":1598,"tt":1599,"zym":1600,"Ġaxis":1601,"Ġterm":1602,"Ġso":1603,"Ġsim":1604,"Ġinves":1605,"esp":1606,"ording":1607,"tig":1608,"Ġmain":1609,"Ġmalign":1610,"Ġmurine":1611,"Ġdo":1612,"rest":1613,"ental":1614,"Ġhallmark":1615,"Ġproject":1616,"ace":1617,"ĠCox":1618,"ocus":1619,"ĠĠĠĠĠĊ":1620,"Ġcompon":1621,"plic":1622,"Ġgenetic":1623,"Ġenzym":1624,"Ġcorrelate":1625,"ount":1626,"Ġfactor":1627,"thy":1628,"def":1629,"formatic":1630,"oinformatic":1631,"antigen":1632,"Ġchem":1633,"comes":1634,"Ġpresent":1635,"Ġprocesses":1636,"Ġmeasurement":1637,"Ġunclear":1638,"Ġcapable":1639,"Ġcytokines":1640,"Ġmany":1641,"Ġupregulated":1642,"Ġevasion":1643,"Ġdirect":1644,"Ġinvestig":1645,"53":1646,"74":1647,"Cancer":1648,"How":1649,"IS":1650,"Spearman":1651,"TLA":1652,"are":1653,"flamm":1654,"ger":1655,"ier":1656,"ired":1657,"les":1658,"rine":1659,"riven":1660,"son":1661,"sis":1662,"uce":1663,"xim":1664,"inal":1665,"ather":1666,"eng":1667,"Ġpip":1668,"Ġprim":1669,"Ġant":1670,"eli":1671,"elen":1672,"Ġthesis":1673,"tif":1674,"rog":1675,"Ġep":1676,"ither":1677,"Ġfre":1678,"Ġalgor":1679,"Ġlik":1680,"Ġprov":1681,"Ġren":1682,"Ġgenomic":1683,"plet":1684,"Ġone":1685,"ĠNF":1686,"Ġgre":1687,"ically":1688,"Ġenrich":1689,"Ġtranscription":1690,"Ġmeta":1691,"Ġregions":1692,"ĠECM":1693,"ĠFDR":1694,"Ġ2008":1695,"Ġqual":1696,"Ġlymphocyte":1697,"Ġlinear":1698,"Ġinfiltrate":1699,"ables":1700,"eutic":1701,"Ġdescrib":1702,"Ġcoll":1703,"Ġlogistic":1704,"Ġperformed":1705,"Ġpattern":1706,"ique":1707,"Ġtrials":1708,"Ġprolifer":1709,"Ġspatial":1710,"Ġalgorith":1711,"AD":1712,"CA":1713,"FDR":1714,"Im":1715,"More":1716,"UC":1717,"Zelen":1718,"ble":1719,"cc":1720,"ces":1721,"dominant":1722,"eg":1723,"fication":1724,"gr":1725,"ie":1726,"ied":1727,"tom":1728,"Ġill":1729,"Ġtests":1730,"ater":1731,"ĠcD":1732,"ond":1733,"Ġsol":1734,"Ġsiz":1735,"Ġwhen":1736,"Ġeither":1737,"Ġfit":1738,"Ġfac":1739,"Ġfocus":1740,"arn":1741,"asan":1742,"Ġlim":1743,"ational":1744,"TIS":1745,"ĠTP":1746,"Ġexcl":1747,"Ġret":1748,"tring":1749,"ection":1750,"Ġimp":1751,"utes":1752,"uture":1753,"olution":1754,"pressive":1755,"mune":1756,"ĠĠĠĠĊ":1757,"agon":1758,"plas":1759,"plot":1760,"Ġ16":1761,"Ġ19":1762,"Ġdemon":1763,"Ġunique":1764,"ociated":1765,"Ġshows":1766,"Ġcorrelates":1767,"Ġnew":1768,"Ġmem":1769,"Ġsubset":1770,"Ġevents":1771,"Ġcoeff":1772,"Ġsample":1773,"Ġhel":1774,"ĠWES":1775,"ensitive":1776,"Ġcontrol":1777,"Ġoutcomes":1778,"associated":1779,"Ġadditional":1780,"izumab":1781,"Ġidentified":1782,"ailable":1783,"Ġsubtype":1784,"GFR":1785,"Ġpreviously":1786,"Ġbaseline":1787,"Ġprofound":1788,"Ġinterest":1789,"tanding":1790,"Ġ95":1791,"ĠCPI":1792,"Ġcurrent":1793,"brisk":1794,"Ġavailable":1795,"Ġcentr":1796,"Ġalterations":1797,"However":1798,"Ġpipeline":1799,"Ġantagon":1800,"Ġenrichment":1801,"Moreover":1802,"Zelenay":1803,"Ġdemonstr":1804,"//":1805,"://":1806,"CI":1807,"CNA":1808,"Gre":1809,"GFÎ":1810,"II":1811,"MP":1812,"NT":1813,"ki":1814,"lan":1815,"nate":1816,"tal":1817,"tog":1818,"ĠJ":1819,"Ġagg":1820,"Ġsensitivity":1821,"Ġsyn":1822,"Ġstimul":1823,"anos":1824,"Ġinnate":1825,"tit":1826,"road":1827,"Ġequ":1828,"Ġfour":1829,"Ġfil":1830,"Ġbased":1831,"Ġlong":1832,"Ġ2010":1833,"Ġnov":1834,"Ġreve":1835,"ĠID":1836,"ustr":1837,"ilst":1838,"Ġimmunogenic":1839,"atients":1840,"Ġstages":1841,"ape":1842,"tein":1843,"ĠSupplementary":1844,"athasan":1845,"Ġgr":1846,"Ġdeath":1847,"Ġenh":1848,"ĠscRNAseq":1849,"Ġbioinformatic":1850,"ariathasan":1851,"Ġchall":1852,"ĠHN":1853,"Ġcov":1854,"ĠDCs":1855,"Ġlower":1856,"Ġmedian":1857,"Ġsuppor":1858,"centred":1859,"Ġeluc":1860,"ought":1861,"ruit":1862,"Ġincreased":1863,"Although":1864,"Ġreceptor":1865,"Ġdiscover":1866,"Ġderived":1867,"Ġcytokine":1868,"inflamed":1869,"treated":1870,"Ġquestion":1871,"Ġquestions":1872,"Ġexperimental":1873,"Ġhypothesis":1874,"helial":1875,"Ġlinked":1876,"Ġabundance":1877,"Ġcasc":1878,"Ġreported":1879,"echn":1880,"iversity":1881,"Ġestim":1882,"Ġstromal":1883,"ttp":1884,"deficient":1885,"Ġchemok":1886,"Ġrenal":1887,"GFÎ²":1888,"together":1889,"anostring":1890,"01":1891,"Ch":1892,"Col":1893,"EG":1894,"HR":1895,"Motzer":1896,"PH":1897,"me":1898,"non":1899,"ski":1900,"tinuous":1901,"uch":1902,"yers":1903,"Ġ**":1904,"Ġtechn":1905,"read":1906,"Ġcoun":1907,"ene":1908,"erred":1909,"ani":1910,"ans":1911,"Ġput":1912,"Ġthey":1913,"Ġwid":1914,"ish":1915,"ists":1916,"itro":1917,"Ġmat":1918,"Ġfavour":1919,"Ġdr":1920,"Ġdam":1921,"respon":1922,"ases":1923,"asing":1924,"assi":1925,"2018":1926,"Ġtotal":1927,"Ġlef":1928,"Ġleu":1929,"Ġloss":1930,"ĠTh":1931,"ĠThe":1932,"Ġnec":1933,"Ġrepresent":1934,"trib":1935,"ective":1936,"ilit":1937,"olved":1938,"abor":1939,"ĠSpearman":1940,"ĠSCNA":1941,"Ġbeing":1942,"Ġadap":1943,"Ġinduc":1944,"ainst":1945,"Ġenric":1946,"Ġencod":1947,"Ġcompr":1948,"Ġintermedi":1949,"dermot":1950,"Ġrate":1951,"Ġactivated":1952,"Ġthereby":1953,"Ġevidence":1954,"ĠEx":1955,"duced":1956,"Ġeffects":1957,"Ġability":1958,"Ġinhibitor":1959,"Ġmotif":1960,"Ġsuppress":1961,"Ġinteractions":1962,"ext":1963,"icients":1964,"Ġparamet":1965,"Ġphase":1966,"Ġcombined":1967,"Ġcombination":1968,"Ġincrease":1969,"Ġaccording":1970,"Ġselected":1971,"Ġextent":1972,"Ġclusters":1973,"Ġmice":1974,"Ġmicro":1975,"treatment":1976,"Ġblockade":1977,"Ġunderstanding":1978,"Ġrecruit":1979,"Ġhighligh":1980,"ĠPTGS":1981,"lectively":1982,"Ġdysf":1983,"Ġillustr":1984,"Ġcoefficients":1985,"Ġputative":1986,"Ġleft":1987,"Ġleuk":1988,"Ġenriched":1989,"Ġintermediate":1990,"dermott":1991,"*<":1992,"75":1993,"Further":1994,"Patients":1995,"Sal":1996,"ey":1997,"gi":1998,"go":1999,"ix":2000,"kB":2001,"ler":2002,"map":2003,"ww":2004,"Ġ6":2005,"Ġcor":2006,"Ġcut":2007,"Ġcase":2008,"Ġclear":2009,"Ġcopy":2010,"Ġsour":2011,"Ġsome":2012,"analys":2013,"ism":2014,"Ġdid":2015,"Ġduring":2016,"Ġbul":2017,"Ġbroad":2018,"anches":2019,"ompar":2020,"ours":2021,"Ġpros":2022,"ult":2023,"ĠTable":2024,"igned":2025,"Ġexp":2026,"eved":2027,"Ġconte":2028,"Ġvitro":2029,"Ġstand":2030,"apter":2031,"adder":2032,"alled":2033,"play":2034,"tered":2035,"Ġonly":2036,"Ġclassi":2037,"Ġanalyses":2038,"orsson":2039,"Ġassay":2040,"Ġwhilst":2041,"Ġpredominant":2042,"Ġneg":2043,"Ġnext":2044,"Ġrati":2045,"Ġright":2046,"Ġrisk":2047,"Ġpredicting":2048,"Ġsame":2049,"oxy":2050,"ĠAl":2051,"Ġ2009":2052,"ĠLitchfield":2053,"omics":2054,"timal":2055,"iltrating":2056,"Ġsupport":2057,"raph":2058,"Ġpromotes":2059,"Ġmeasuring":2060,"Ġexpressing":2061,"Ġupstream":2062,"Altogether":2063,"ynam":2064,"Ġthroughout":2065,"ĠRNAseq":2066,"uble":2067,"Ġagainst":2068,"Ġstrongly":2069,"Ġexperiments":2070,"ĠContinuous":2071,"Ġmonocytes":2072,"Ġheterogeneous":2073,"Ġendot":2074,"Ġfield":2075,"Ġpositive":2076,"Ġconsider":2077,"Ġlead":2078,"Ġdirectly":2079,"Ġpatterns":2080,"Ġproliferation":2081,"Ġsoluble":2082,"Ġfacilit":2083,"Ġlimit":2084,"Ġcentral":2085,"CIH":2086,"Ġnovel":2087,"Ġreveal":2088,"Ġchemokines":2089,"Collectively":2090,"giogenesis":2091,"Ġbulk":2092,"anchester":2093,"24":2094,"274":2095,"50":2096,"Cell":2097,"Chen":2098,"EM":2099,"PP":2100,"Un":2101,"ced":2102,"ctional":2103,"den":2104,"duce":2105,"face":2106,"http":2107,"lic":2108,"land":2109,"ning":2110,"right":2111,"sing":2112,"Ġ8":2113,"Ġ<":2114,"Ġaim":2115,"Ġaff":2116,"induced":2117,"Ġten":2118,"Ġcir":2119,"Ġcould":2120,"ert":2121,"Ġser":2122,"Ġsep":2123,"esc":2124,"Ġany":2125,"org":2126,"itant":2127,"Ġma":2128,"Ġmin":2129,"atively":2130,"Ġfu":2131,"Ġless":2132,"Ġlarg":2133,"omes":2134,"ĠCI":2135,"ĠCCLE":2136,"ĠCompar":2137,"genase":2138,"Ġrecent":2139,"Ġinflu":2140,"Ġimpro":2141,"ident":2142,"terisk":2143,"ocrine":2144,"pression":2145,"Ġrestr":2146,"Ġconcom":2147,"ĠĠĠĠĠĠĊ":2148,"chym":2149,"Ġvers":2150,"ants":2151,"ploid":2152,"âĢĿ":2153,"ĠMc":2154,"Ġ10":2155,"Ġorig":2156,"Ġresponders":2157,"Ġdeep":2158,"Ġeng":2159,"orrelation":2160,"Ġvalid":2161,"Ġcomput":2162,"001":2163,"Ġneed":2164,"Ġrather":2165,"Ġsubse":2166,"rosis":2167,"Ġcoord":2168,"ĠAn":2169,"Ġ2004":2170,"ĠLU":2171,"Ġcontinuous":2172,"Ġcontrast":2173,"Ġvariable":2174,"Ġvariables":2175,"Ġoverl":2176,"Ġtherapeutic":2177,"Ġelev":2178,"Ġnetworks":2179,"ĠTCR":2180,"ake":2181,"Ġsetting":2182,"Ġsecretion":2183,"Ġsecrete":2184,"Ġeffector":2185,"Ġderive":2186,"infiltrating":2187,"Ġcomparing":2188,"Ġevasive":2189,"Ġprofil":2190,"Ġmetastasis":2191,"Ġextracted":2192,"Ġextracellular":2193,"Ġheterogeneity":2194,"Ġnodes":2195,"overed":2196,"Ġdeterminant":2197,"IFNÎ³":2198,"hibitory":2199,"Ġutility":2200,"ĠResearch":2201,"Ġhallmarks":2202,"ĠNFkB":2203,"Ġdescribed":2204,"Ġalgorithm":2205,"ĠcDC":2206,"Ġsubsets":2207,"tribution":2208,"ĠSCNAs":2209,"Ġadaptive":2210,"Ġpredominantly":2211,"oxygenase":2212,"ynamic":2213,"Ġsepar":2214,"ĠComparison":2215,"Ġconcomitant":2216,"Ġcoordin":2217,"39":2218,"40":2219,"COX":2220,"CCLE":2221,"IL":2222,"It":2223,"LO":2224,"Ms":2225,"Pro":2226,"RES":2227,"TK":2228,"eep":2229,"hi":2230,"hor":2231,"house":2232,"iti":2233,"line":2234,"ob":2235,"sist":2236,"tz":2237,"the":2238,"tand":2239,"uff":2240,"ven":2241,"vir":2242,"ycl":2243,"zol":2244,"inhibitory":2245,"onment":2246,"ends":2247,"erg":2248,"erous":2249,"Ġins":2250,"ested":2251,"Ġangiogenesis":2252,"orts":2253,"Ġmade":2254,"Ġmust":2255,"Ġfl":2256,"Ġful":2257,"arr":2258,"Ġdec":2259,"Ġbar":2260,"Ġbet":2261,"ĠPR":2262,"omas":2263,"Ġprost":2264,"Ġproper":2265,"acy":2266,"ulate":2267,"Ġinform":2268,"Ġsuper":2269,"ides":2270,"ilar":2271,"ols":2272,"Ġimmunos":2273,"app":2274,"apid":2275,"antov":2276,"ticular":2277,"quent":2278,"rive":2279,"ments":2280,"ĠMHC":2281,"ĠManchester":2282,"ĠNanostring":2283,"Ġorder":2284,"uppressive":2285,"Ġassess":2286,"Int":2287,"Ġscre":2288,"Ġbiology":2289,"ariates":2290,"Ġdistribution":2291,"Ġwhat":2292,"Ġpathology":2293,"ounter":2294,"Ġrapid":2295,"Ġsurface":2296,"ĠHR":2297,"ĠDr":2298,"ĠDGE":2299,"dered":2300,"Ġ2002":2301,"ensive":2302,"Ġbladder":2303,"Ġinfiltrating":2304,"ajew":2305,"Ġfeature":2306,"Ġcombinations":2307,"Ġkn":2308,"ensity":2309,"Ġmacrophage":2310,"ametric":2311,"Ġrefametinib":2312,"Ġyear":2313,"Ġdownstream":2314,"Ġincreasing":2315,"Ġaccur":2316,"Ġextensive":2317,"parametric":2318,"ĠInflamm":2319,"Ġmethods":2320,"Ġestablish":2321,"Ġabundant":2322,"Ġhighlight":2323,"Ġformation":2324,"Ġhealing":2325,"Ġhealthy":2326,"Ġrequired":2327,"Ġneoplas":2328,"Mcdermott":2329,"Ġpublic":2330,"Ġamongst":2331,"Ġadvanced":2332,"Ġantibodies":2333,"ĠCoxPH":2334,"Ġenzymes":2335,"Ġinvestigate":2336,"Ġfrequently":2337,"ĠIDO":2338,"Ġcovariates":2339,"Ġcounts":2340,"ĠExam":2341,"Ġcontext":2342,"Ġratio":2343,"Ġendothelial":2344,"chymal":2345,"Ġversus":2346,"vironment":2347,"Ġbetter":2348,"antovani":2349,"ajewski":2350,"Ayers":2351,"BE":2352,"CP":2353,"FC":2354,"Fs":2355,"Lymph":2356,"Next":2357,"SI":2358,"ST":2359,"Sh":2360,"aÃ":2361,"bal":2362,"bot":2363,"cape":2364,"called":2365,"eh":2366,"gro":2367,"hip":2368,"mac":2369,"normal":2370,"ra":2371,"sc":2372,"top":2373,"vals":2374,"wn":2375,"¯ve":2376,"Âµ":2377,"ĠZ":2378,"ini":2379,"inase":2380,"atch":2381,"Ġcri":2382,"ern":2383,"Ġsk":2384,"Ġinst":2385,"alu":2386,"Ġwor":2387,"ises":2388,"row":2389,"Ġem":2390,"inger":2391,"ĠmRNA":2392,"Ġfar":2393,"Ġdel":2394,"Ġdev":2395,"Ġdrive":2396,"ressive":2397,"Ġbur":2398,"Ġled":2399,"Ġlear":2400,"Ġhar":2401,"ett":2402,"unctional":2403,"lev":2404,"ĠCA":2405,"ulatory":2406,"ĠTA":2407,"ĠTGFÎ²":2408,"Ġ2011":2409,"ignature":2410,"side":2411,"gene":2412,"Ġexpos":2413,"Ġread":2414,"olve":2415,"Ġconcl":2416,"ability":2417,"chi":2418,"Ġstate":2419,"aps":2420,"Ġcomplement":2421,"Ġacid":2422,"Ġacqu":2423,"Ġclon":2424,"optimal":2425,"ĠNCIH":2426,"Ġaden":2427,"ucle":2428,"ifications":2429,"Ġpatholog":2430,"Ġintervals":2431,"derived":2432,"Ġassociates":2433,"Ġchang":2434,"rospective":2435,"ĠHLA":2436,"Ġevalu":2437,"âĢĻ,":2438,"erence":2439,"ĠAP":2440,"ĠEGFR":2441,"itions":2442,"Ġothers":2443,"Ġplas":2444,"Ġinhibitory":2445,"Ġsections":2446,"Ġsecond":2447,"Ġself":2448,"ĠTILs":2449,"Asterisk":2450,"type":2451,"Ġparticular":2452,"Ġappl":2453,"Ġphag":2454,"Ġfollowed":2455,"Ġtherapies":2456,"centr":2457,"euploid":2458,"Ġ50":2459,"Ġkill":2460,"Ġresulting":2461,"berg":2462,"lobal":2463,"Ġtargeted":2464,"Ġtargeting":2465,"Ġselectively":2466,"fying":2467,"Ġconfidence":2468,"Ġarch":2469,"Ġhypothesised":2470,"ĠConf":2471,"Ġgenerally":2472,"Ġunderstand":2473,"Ġbinding":2474,"Ġsuggesting":2475,"Ġdrugs":2476,"Ġnode":2477,"Ġannotations":2478,"Ġsystemic":2479,"Ġessentiality":2480,"Ġinclude":2481,"Ġmalignanc":2482,"Ġcomponents":2483,"Ġlikely":2484,"Ġexclu":2485,"Ġ199":2486,"Ġhelp":2487,"Greten":2488,"Ġbioinformatics":2489,"Ġsupports":2490,"Ġdiscovery":2491,"Ġmotifs":2492,"Ġparameters":2493,"Ġstandard":2494,"Ġrevealed":2495,"https":2496,"Ġmaxim":2497,"Ġoriginal":2498,"Ġimmunosuppressive":2499,"aÃ¯ve":2500,"bottom":2501,"Ġcritical":2502,"Ġburden":2503,"Ġlearning":2504,"Ġchanges":2505,"euploidy":2506,"04":2507,"19":2508,"65":2509,"Ar":2510,"CXCL":2511,"CTLA":2512,"ELA":2513,"EGF":2514,"NF":2515,"Non":2516,"ON":2517,"OR":2518,"RO":2519,"RS":2520,"Re":2521,"TM":2522,"TP":2523,"Tumour":2524,"Using":2525,"Whe":2526,"ave":2527,"bi":2528,"bers":2529,"come":2530,"ccess":2531,"dom":2532,"etic":2533,"eous":2534,"fter":2535,"hat":2536,"hood":2537,"ially":2538,"keep":2539,"lier":2540,"most":2541,"ne":2542,"nik":2543,"ooxygenase":2544,"pin":2545,"pend":2546,"uk":2547,"ysi":2548,"Ġ>":2549,"Ġaid":2550,"Ġate":2551,"inate":2552,"atmap":2553,"Ġcre":2554,"Ġsqu":2555,"Ġsensitive":2556,"ann":2557,"ano":2558,"Ġpanc":2559,"esen":2560,"ale":2561,"Ġaneuploidy":2562,"elf":2563,"elves":2564,"Ġways":2565,"ished":2566,"ites":2567,"Ġmight":2568,"Ġfail":2569,"Ġfuture":2570,"arch":2571,"Ġdig":2572,"Ġdynamic":2573,"Ġdensity":2574,"Ġback":2575,"Ġbeli":2576,"aster":2577,"Ġalong":2578,"ĠPh":2579,"Ġtoler":2580,"Ġlist":2581,"Ġlip":2582,"umeh":2583,"Ġthought":2584,"Ġhost":2585,"Ġhouse":2586,"Ġproduce":2587,"unit":2588,"immune":2589,"ĠChen":2590,"ĠCTLA":2591,"ĠTreg":2592,"ignificant":2593,"vere":2594,"Ġnow":2595,"ĠnaÃ¯ve":2596,"Ġexhibit":2597,"Ġsuccess":2598,"Ġimplic":2599,"old":2600,"och":2601,"ateg":2602,"Ġresearch":2603,"Ġgenome":2604,"osph":2605,"chmark":2606,"aging":2607,"Ġcomple":2608,"plifications":2609,"ried":2610,"ĠMariathasan":2611,"Ġ15":2612,"Ġclin":2613,"ĠSch":2614,"ationship":2615,"Ġgraph":2616,"Ġglobal":2617,"Ġindex":2618,"ude":2619,"Ġinterplay":2620,"Ġtranscripts":2621,"Ġassociate":2622,"igenetic":2623,"Ġmutant":2624,"ĠEP":2625,"Ġ24":2626,"Ġ2001":2627,"ĠGriven":2628,"Ġfinal":2629,"ĠWol":2630,"ĠWNT":2631,"regates":2632,"Ġresistant":2633,"RAF":2634,"oints":2635,"Ġcontaining":2636,"Ġindicates":2637,"Ġcarried":2638,"Ġupon":2639,"express":2640,"Ġoverall":2641,"Ġphysi":2642,"Ġcombining":2643,"Ġbenchmark":2644,"Ġdefine":2645,"Ġamplifications":2646,"Ġresult":2647,"ency":2648,"Ġhumans":2649,"Ġstudying":2650,"All":2651,"Ġitself":2652,"Ġimportance":2653,"ĠMEL":2654,"GSE":2655,"Ġuncovered":2656,"Ġregulators":2657,"Ġearlier":2658,"Ġnumerous":2659,"Ġnormalised":2660,"Ġnormalisation":2661,"Ġrelated":2662,"Ġrelationship":2663,"Ġclustering":2664,"Ġstatistic":2665,"Ġconsistently":2666,"Ġmajority":2667,"Ġmutational":2668,"Ġupregulation":2669,"Ġdepend":2670,"ĠUn":2671,"Ġmechanism":2672,"heless":2673,"Ġbasis":2674,"Ġestablished":2675,"ĠĠĠĠĠĠĠĠĠĠĠĠĠĠĠĠĠĠĠĠĠĠĠĠ":2676,"Ġrandom":2677,"Ġfile":2678,"Ġnotion":2679,"Ġrequire":2680,"Ġwhereas":2681,"Ġpowerfully":2682,"Ġconsidered":2683,"Ġquantit":2684,"One":2685,"Ġautocrine":2686,"Ġantibody":2687,"airwise":2688,"Ġmalignant":2689,"Ġcomponent":2690,"Ġpresentation":2691,"Ġprimary":2692,"Ġepigenetic":2693,"Ġqualit":2694,"Ġcollabor":2695,"Ġfitted":2696,"Ġretrospective":2697,"Ġantagonistic":2698,"Ġaggregates":2699,"titute":2700,"Ġchalleng":2701,"ĠHNSC":2702,"Ġestimates":2703,"Ġillustrating":2704,"Saltz":2705,"Ġexpan":2706,"Ġnegative":2707,"ĠAll":2708,"ĠLUSC":2709,"Ġelevated":2710,"yclooxygenase":2711,"zolizumab":2712,"Ġfull":2713,"Ġproperties":2714,"Ġinformation":2715,"Ġscreen":2716,"Ġyears":2717,"Ġpublicly":2718,"Ġworse":2719,"Ġclones":2720,"Asterisks":2721,"ĠConfInt":2722,"Ġmalignancies":2723,"nikov":2724,"Ġatezolizumab":2725,"Ġpancre":2726,"Ġhousekeep":2727,"Ġcomplex":2728,"ĠGrivennikov":2729,"Ġphysiological":2730,"09":2731,"15":2732,"26":2733,"30":2734,"AS":2735,"CT":2736,"Com":2737,"Counter":2738,"FS":2739,"Future":2740,"Gu":2741,"He":2742,"Hall":2743,"MM":2744,"Not":2745,"REG":2746,"Several":2747,"TH":2748,"With":2749,"Yet":2750,"aw":2751,"ahan":2752,"ci":2753,"cat":2754,"cur":2755,"dle":2756,"dependent":2757,"for":2758,"iew":2759,"led":2760,"less":2761,"men":2762,"ming":2763,"met":2764,"more":2765,"ny":2766,"ole":2767,"pran":2768,"pite":2769,"rin":2770,"rist":2771,"ruc":2772,"raction":2773,"rav":2774,"ty":2775,"tures":2776,"ule":2777,"use":2778,"yan":2779,"zard":2780,"Ġ7":2781,"Ġj":2782,"rec":2783,"Ġcod":2784,"erby":2785,"Ġsil":2786,"ank":2787,"Ġpur":2788,"Ġocc":2789,"Ġown":2790,"ald":2791,"aly":2792,"alon":2793,"Ġanother":2794,"Ġanaly":2795,"roent":2796,"Ġfraction":2797,"art":2798,"arin":2799,"artil":2800,"arthy":2801,"armac":2802,"ico":2803,"icit":2804,"oured":2805,"resting":2806,"elled":2807,"Ġbr":2808,"Ġbec":2809,"ascul":2810,"Ġalthough":2811,"entre":2812,"ĠPan":2813,"Ġlo":2814,"Ġliver":2815,"Ġlands":2816,"omen":2817,"omod":2818,"Ġhos":2819,"Ġhome":2820,"Ġhours":2821,"imens":2822,"ley":2823,"Ġwithout":2824,"ĠCorrelation":2825,"sider":2826,"sively":2827,"sible":2828,"Ġnucle":2829,"ĠnCounter":2830,"sem":2831,"Ġinflamed":2832,"Ġsignal":2833,"truc":2834,"ĠII":2835,"ĠIm":2836,"Ġconcentr":2837,"ivo":2838,"ivariate":2839,"abase":2840,"ĠĠĠĠĠĠĠĊ":2841,"Ġvivo":2842,"Ġstep":2843,"aged":2844,"agland":2845,"ades":2846,"ritic":2847,"Ġbefore":2848,"Ġgl":2849,"Ġgerm":2850,"Ġshort":2851,"Ġrespond":2852,"Ġtransition":2853,"Ġdeg":2854,"Ġenti":2855,"Ġmodul":2856,"Ġhazard":2857,"Ġvalidate":2858,"Ġinterrog":2859,"Ġcorrelations":2860,"Ġsubver":2861,"ĠBi":2862,"ĠBall":2863,"ĠBonavita":2864,"Ġchrom":2865,"Ġsurrog":2866,"Ġeven":2867,"Ġhep":2868,"iking":2869,"Ġ25":2870,"ĠKarin":2871,"Ġ2006":2872,"ĠGajewski":2873,"Ġquartil":2874,"ĠWe":2875,"ĠWang":2876,"Ġplus":2877,"Ġpoin":2878,"Ġeffic":2879,"timately":2880,"protein":2881,"Ġroles":2882,"Ġlymphoid":2883,"Ġdeveloped":2884,"Ġdeveloping":2885,"Ġpromoting":2886,"Ġindicated":2887,"Ġblood":2888,"Ġpart":2889,"regulated":2890,"Ġphosph":2891,"Ġpharmac":2892,"Ġdetection":2893,"Ġtranscriptomes":2894,"ĠKRASG":2895,"Ġkey":2896,"Ġkinase":2897,"arded":2898,"ortal":2899,"Ġrefers":2900,"Ġreferred":2901,"Ġreference":2902,"Ġobj":2903,"Ġobt":2904,"Ġsecreting":2905,"reement":2906,"Ġdesigned":2907,"Ġdespite":2908,"Ġmeasured":2909,"Ġcompare":2910,"Ġdiscarded":2911,"Ġselection":2912,"Ġrelative":2913,"Ġcontribution":2914,"Ġadjusting":2915,"1339":2916,"Ġconfir":2917,"Ġdependent":2918,"Ġcomparison":2919,"Ġblocks":2920,"Ġpopulation":2921,"Ġlinks":2922,"Ġintegr":2923,"Ġmetastatic":2924,"Ġestablishes":2925,"Ġtrial":2926,"Ġrank":2927,"Ġexplained":2928,"Ġunderpin":2929,"Ġdifferentiate":2930,"haroent":2931,"Ġannotated":2932,"Ġneoantigen":2933,"Ġpositively":2934,"Consist":2935,"IFNg":2936,"Ġpublished":2937,"Ġmarkers":2938,"Ġtransformed":2939,"Ġtransformation":2940,"Ġincluded":2941,"Ġterms":2942,"espread":2943,"elihood":2944,"Ġlikelihood":2945,"pleted":2946,"Ġgreater":2947,"Ġquality":2948,"Ġsize":2949,"arness":2950,"plots":2951,"Ġmemory":2952,"Ġequally":2953,"Ġfiltered":2954,"Ġimmunogenicity":2955,"Ġelucid":2956,"Ġelucidate":2957,"Ġquestioned":2958,"Ġcascade":2959,"Ġcascades":2960,"Ġdamage":2961,"Ġnecrosis":2962,"Ġdysfunction":2963,"Furthermore":2964,"Ġsource":2965,"Ġcircul":2966,"ertain":2967,"Ġlarge":2968,"Ġimproved":2969,"Ġvalidation":2970,"Ġsubsequently":2971,"Ġsettings":2972,"Ġprofiling":2973,"ventional":2974,"Ġprostagland":2975,"Ġknown":2976,"ĠInflammation":2977,"Lymphocyte":2978,"normalised":2979,"Ġapplied":2980,"Ġarchival":2981,"Arnon":2982,"esenchymal":2983,"Ġdigit":2984,"Ġbackgro":2985,"Ġbelieved":2986,"Ġalongside":2987,"ĠPhD":2988,"ĠTregs":2989,"Ġimplicated":2990,"ĠUniversity":2991,"Ġexpansion":2992,"Ġhousekeeper":2993,"nyder":2994,"pranger":2995,"Ġsilico":2996,"Ġlandscape":2997,"omodulatory":2998,"Ġhomeost":2999,"sidering":3000,"Ġquartiles":3001,"haroentong":3002,"Consistent":3003,"07":3004,"17":3005,"23":3006,"33":3007,"325":3008,"76":3009,"86":3010,"AAD":3011,"CGA":3012,"Desp":3013,"EN":3014,"Fin":3015,"First":3016,"Gran":3017,"Gene":3018,"ICB":3019,"LR":3020,"LT":3021,"Li":3022,"Litchfield":3023,"MT":3024,"Me":3025,"Mariathasan":3026,"Ne":3027,"Some":3028,"Spranger":3029,"TCR":3030,"Tumeh":3031,"TCGA":3032,"ae":3033,"aff":3034,"back":3035,"bust":3036,"con":3037,"correl":3038,"cox":3039,"ches":3040,"ched":3041,"dis":3042,"driven":3043,"ditions":3044,"ered":3045,"flow":3046,"gin":3047,"ij":3048,"iang":3049,"ities":3050,"lation":3051,"lik":3052,"mer":3053,"mall":3054,"ness":3055,"oes":3056,"pa":3057,"stimul":3058,"sensitive":3059,"trom":3060,"theless":3061,"ually":3062,"vations":3063,"xpress":3064,"yros":3065,"Î²":3066,"Î´":3067,"Î¼":3068,"Ġ+":3069,"Ġx":3070,"Ġed":3071,"Ġif":3072,"Ġage":3073,"Ġtable":3074,"Ġtyros":3075,"reast":3076,"atel":3077,"Ġcate":3078,"Ġcore":3079,"Ġcertain":3080,"hest":3081,"enin":3082,"enge":3083,"erv":3084,"erved":3085,"Ġsl":3086,"Ġsw":3087,"Ġsix":3088,"Ġsunit":3089,"Ġpos":3090,"Ġovere":3091,"Ġiniti":3092,"Ġanerg":3093,"edback":3094,"Ġthem":3095,"Ġthems":3096,"tile":3097,"tide":3098,"roduc":3099,"Ġever":3100,"iting":3101,"Ġmar":3102,"Ġmil":3103,"Ġmelanoma":3104,"Ġmouse":3105,"Ġfam":3106,"Ġfate":3107,"arc":3108,"arcin":3109,"ick":3110,"icity":3111,"ictive":3112,"Ġdi":3113,"Ġden":3114,"Ġdominant":3115,"Ġdiversity":3116,"resh":3117,"elling":3118,"Ġbev":3119,"Ġbest":3120,"Ġbone":3121,"Ġbuff":3122,"Ġbatch":3123,"Ġbreast":3124,"Ġallow":3125,"umm":3126,"amous":3127,"anche":3128,"anced":3129,"Ġharness":3130,"Ġprot":3131,"acity":3132,"aches":3133,"acizumab":3134,"ĠTur":3135,"Ġnine":3136,"Ġexist":3137,"Ġred":3138,"Ġrep":3139,"Ġrepres":3140,"Ġinfer":3141,"trid":3142,"Ġsus":3143,"ĠIC":3144,"ĠITH":3145,"iding":3146,"ilcox":3147,"ocarcin":3148,"Ġresolution":3149,"Ġconditions":3150,"Ġimmuno":3151,"chok":3152,"Ġview":3153,"Ġstress":3154,"antly":3155,"Ġacute":3156,"rix":3157,"Ġarea":3158,"Ġdatabase":3159,"istance":3160,"opath":3161,"ĠNT":3162,"ĠNGS":3163,"ĠSTA":3164,"ĠSignature":3165,"Ġbegin":3166,"Ġshould":3167,"Ġassays":3168,"Ġunivariate":3169,"Ġenvironment":3170,"Inte":3171,"Inflamm":3172,"reng":3173,"Ġscale":3174,"Ġbiological":3175,"uded":3176,"Ġinteract":3177,"Thorsson":3178,"Ġrich":3179,"ĠBa":3180,"ĠBRAF":3181,"Ġactivating":3182,"ĠHu":3183,"Ġmetric":3184,"Ġpredicts":3185,"Ġpredicted":3186,"entially":3187,"Ġdiffuse":3188,"depleted":3189,"ĠAUC":3190,"ĠEv":3191,"Ġstrateg":3192,"evertheless":3193,"Ġ2005":3194,"ĠGu":3195,"ĠLI":3196,"ĠLe":3197,"Ġplate":3198,"Ġplates":3199,"endritic":3200,"Ġabs":3201,"Ġable":3202,"Ġabout":3203,"Ġabove":3204,"Ġconserved":3205,"Ġcand":3206,"ĠccRCCs":3207,"portantly":3208,"Ġfeedback":3209,"Ġphenotypic":3210,"Ġrout":3211,"Ġrobust":3212,"Ġproteomic":3213,"Ġthank":3214,"ipher":3215,"ctal":3216,"Ġindicator":3217,"Ġcartrid":3218,"exist":3219,"iao":3220,"Ġvariance":3221,"Ġvarious":3222,"Ġdetail":3223,"Ġdetected":3224,"centage":3225,"Ġelicit":3226,"Ġtesting":3227,"Ġsets":3228,"angi":3229,"Ġsecreted":3230,"Ġpotent":3231,"Ġpotentially":3232,"Ġbottom":3233,"Ġsuggests":3234,"Ġtargets":3235,"Ġligand":3236,"Ġaccount":3237,"Ġuncover":3238,"Ġregulatory":3239,"Ġmechanistic":3240,"Ġextend":3241,"Ġcapacity":3242,"Ġworkflow":3243,"GFb":3244,"Ġmanip":3245,"Ġagents":3246,"Ġagreement":3247,"Ġdepends":3248,"ĠUK":3249,"Ġhighest":3250,"Ġapproved":3251,"Ġapproaches":3252,"Ġbinary":3253,"Ġmetastases":3254,"Ġobservations":3255,"taneous":3256,"Ġdifferential":3257,"Ġdifferentiation":3258,"posed":3259,"Ġdetermine":3260,"Ġcases":3261,"Ġmarked":3262,"Ġmetabolism":3263,"Î³Î´":3264,"Ġinvolved":3265,"opyright":3266,"Ġconverted":3267,"ĠResistance":3268,"Ġsimul":3269,"Ġsimilar":3270,"Ġprovide":3271,"Importantly":3272,"Ġsizes":3273,"arnett":3274,"Ġmembers":3275,"Ġhelper":3276,"Ġdemonstrate":3277,"Ġaggressive":3278,"Ġchallenge":3279,"EGs":3280,"mean":3281,"Ġ**<":3282,"Ġwidespread":3283,"Ġmatrix":3284,"Ġdriver":3285,"responders":3286,"ĠThorsson":3287,"Ġcomprising":3288,"Ġhighlighted":3289,"Ġdysfunctional":3290,"www":3291,"analysis":3292,"Ġleads":3293,"PPA":3294,"escu":3295,"Ġminutes":3296,"Ġfuel":3297,"Ġinfluence":3298,"array":3299,"ĠExamples":3300,"Âµl":3301,"Ġskew":3302,"Ġexposure":3303,"Ġexclusion":3304,"Ġmaximise":3305,"Ġsquamous":3306,"Ġlipid":3307,"Ġclinic":3308,"ĠWolchok":3309,"Ġbenchmarking":3310,"Ġpancreatic":3311,"Notably":3312,"catenin":3313,"ristescu":3314,"rucially":3315,"Ġjoint":3316,"Ġbecome":3317,"ascular":3318,"Ġloop":3319,"Ġgermline":3320,"Ġdegree":3321,"Ġentire":3322,"Ġefficacy":3323,"Ġobjective":3324,"Despite":3325,"Firstly":3326,"Granahan":3327,"aeys":3328,"Ġtyrosine":3329,"Ġcategor":3330,"Ġsunitinib":3331,"Ġpossible":3332,"Ġanergy":3333,"Ġthemselves":3334,"Ġbevacizumab":3335,"Ġbuffer":3336,"Ġrepresents":3337,"ilcoxon":3338,"ocarcinoma":3339,"Ġmetrics":3340,"Ġcartridge":3341,"))":3342,"02":3343,"16":3344,"28":3345,"31":3346,"38":3347,"47":3348,"49":3349,"56":3350,"59":3351,"62":3352,"69":3353,"78":3354,"AB":3355,"Acc":3356,"Bi":3357,"CC":3358,"CS":3359,"Cl":3360,"Charoentong":3361,"DI":3362,"Given":3363,"HLA":3364,"IC":3365,"IN":3366,"KB":3367,"LS":3368,"MD":3369,"Med":3370,"Mul":3371,"Map":3372,"Mark":3373,"Mantovani":3374,"Nevertheless":3375,"Other":3376,"PT":3377,"Pan":3378,"Sa":3379,"Such":3380,"Singer":3381,"Table":3382,"TGFÎ²":3383,"VEGF":3384,"WT":3385,"Wound":3386,"Xu":3387,"ai":3388,"au":3389,"be":3390,"bre":3391,"bes":3392,"bour":3393,"co":3394,"cs":3395,"cher":3396,"ccRCC":3397,"dat":3398,"down":3399,"eatmap":3400,"ft":3401,"ged":3402,"gent":3403,"ily":3404,"ience":3405,"ieu":3406,"jected":3407,"las":3408,"log":3409,"mid":3410,"myt":3411,"nat":3412,"oy":3413,"ored":3414,"oved":3415,"sed":3416,"tw":3417,"tell":3418,"txt":3419,"uate":3420,"van":3421,"val":3422,"zh":3423,"§al":3424,"Ã§al":3425,"Ġul":3426,"Ġut":3427,"ĠÎ³Î´":3428,"Ġachi":3429,"Ġafter":3430,"Ġtren":3431,"Ġtake":3432,"rein":3433,"rection":3434,"Ġcult":3435,"onÃ§al":3436,"enes":3437,"ening":3438,"entical":3439,"err":3440,"Ġsof":3441,"Ġsought":3442,"Ġsumm":3443,"any":3444,"anon":3445,"anoid":3446,"Ġpers":3447,"Ġpost":3448,"Ġpairwise":3449,"orph":3450,"editing":3451,"tis":3452,"Ġwound":3453,"isual":3454,"rop":3455,"Ġoften":3456,"Ġmim":3457,"Ġmature":3458,"Ġmaster":3459,"Ġmesenchymal":3460,"Ġmorph":3461,"Ġfive":3462,"Ġ(**":3463,"Ġ(*<":3464,"Ġdou":3465,"Ġdil":3466,"Ġdue":3467,"Ġdual":3468,"restr":3469,"Ġband":3470,"asc":3471,"Ġalone":3472,"Ġtool":3473,"Ġloc":3474,"Ġlabor":3475,"Ġ2000":3476,"umar":3477,"omy":3478,"Ġthym":3479,"ets":3480,"etry":3481,"ethor":3482,"unn":3483,"imus":3484,"ots":3485,"left":3486,"ĠTumour":3487,"ĠTGFb":3488,"tioned":3489,"owled":3490,"gence":3491,"Ġnature":3492,"Ġaspec":3493,"Ġexact":3494,"Ġexha":3495,"Ġrece":3496,"Ġrepro":3497,"Ġsignific":3498,"Ġsignals":3499,"trans":3500,"ustion":3501,"Ġimage":3502,"ida":3503,"olid":3504,"olimus":3505,"term":3506,"muno":3507,"ural":3508,"uram":3509,"osine":3510,"Ġconventional":3511,"ivol":3512,"Ġimmunomodulatory":3513,"ifically":3514,"iber":3515,"Ġver":3516,"Ġvisual":3517,"Ġstained":3518,"agnos":3519,"ada":3520,"adi":3521,"pling":3522,"tead":3523,"teins":3524,"inex":3525,"orectal":3526,"ĠMotzer":3527,"ĠMantovani":3528,"Ġ12":3529,"rans":3530,"alysis":3531,"Ġclos":3532,"oph":3533,"opro":3534,"Ġorg":3535,"ĠSmyt":3536,"pletion":3537,"Ġgu":3538,"Ġprogres":3539,"Ġshape":3540,"Ġresponding":3541,"stanti":3542,"Ġmoder":3543,"Ġmodal":3544,"rence":3545,"verse":3546,"ĠRELA":3547,"ariable":3548,"clinical":3549,"clonal":3550,"Ġwhole":3551,"Through":3552,"pectively":3553,"Ġrare":3554,"Ġsubstanti":3555,"ĠBar":3556,"eproduc":3557,"epMap":3558,"ĠHeatmap":3559,"Ġevolved":3560,"omarker":3561,"Ġdiffic":3562,"ĠDC":3563,"ĠDNA":3564,"ĠDEGs":3565,"ĠâĢľ":3566,"onged":3567,"Ġhead":3568,"ĠEMT":3569,"Ġstriking":3570,"ĠKM":3571,"ĠFC":3572,"ectual":3573,"ĠGen":3574,"Ġ30":3575,"Ġpreced":3576,"Ġadded":3577,"ĠWald":3578,"Ġplethor":3579,"Ġperipher":3580,"Ġpercentage":3581,"Ġefforts":3582,"Ġclinically":3583,"Ġconsens":3584,"Ġconstit":3585,"Ġconstruc":3586,"Ġmultiplic":3587,"Ġsuppressive":3588,"Ġrow":3589,"Ġpromoter":3590,"Ġexamples":3591,"Ġexamined":3592,"Ġoutcome":3593,"Ġblue":3594,"ollowing":3595,"mann":3596,"Ġvariation":3597,"regulation":3598,"Ġidentical":3599,"Ġproduct":3600,"ardo":3601,"ESC":3602,"enced":3603,"akrav":3604,"Ġremoved":3605,"Ġcharacterisation":3606,"Ġdesign":3607,"Ġprocessing":3608,"Ġdevelopmental":3609,"Ġcolorectal":3610,"Ġsuggested":3611,"Ġpreval":3612,"Ġtrig":3613,"Ġtrametinib":3614,"Ġdiscus":3615,"Ġgrouped":3616,"Ġantigenicity":3617,"Ġselective":3618,"Ġregulator":3619,"Ġstratification":3620,"Ġstratifying":3621,"Ġcarcinomas":3622,"Ġcontributes":3623,"Ġperformance":3624,"emat":3625,"Ġcomparable":3626,"Ġcohorts":3627,"Ġtranscriptomics":3628,"ĠUp":3629,"Ġarm":3630,"Ġgeneration":3631,"Ġapproach":3632,"ibroblast":3633,"Ġmethodology":3634,"PTIhigh":3635,"Ġdirection":3636,"iques":3637,"Ġfunctions":3638,"Ġprograms":3639,"Ġpredictor":3640,"Ġpredictors":3641,"Ġrange":3642,"Ġspecifically":3643,"Ġprolonged":3644,"Ġexplain":3645,"Ġannotation":3646,"Ġreports":3647,"Ġutilising":3648,"luence":3649,"Ġoptim":3650,"Ġstroma":3651,"Ġuseful":3652,"Ġadvances":3653,"Ġauthor":3654,"Ġhistopath":3655,"ĠChapter":3656,"Ġidentifying":3657,"ierarch":3658,"ximately":3659,"Ġpriming":3660,"Ġgreat":3661,"Ġalgorithms":3662,"Immune":3663,"grad":3664,"Ġfocussed":3665,"TIShigh":3666,"Ġimpact":3667,"Ġdemonstrated":3668,"lank":3669,"Ġenhancer":3670,"Ġenhanced":3671,"Ġ***<":3672,"Ġtechniques":3673,"ishida":3674,"ĠThom":3675,"Ġneck":3676,"Ġinduced":3677,"Ġencoding":3678,"Ġmicroarray":3679,"Ġrecruitment":3680,"Ġleukocytes":3681,"Ġleukocyte":3682,"going":3683,"Ġcorrection":3684,"Ġsources":3685,"Ġclassified":3686,"Ġconsiderable":3687,"Ġlimited":3688,"Cells":3689,"ĠCIBE":3690,"Ġcomputational":3691,"Ġoverlap":3692,"Ġseparated":3693,"Ġcoordinated":3694,"LOH":3695,"TKI":3696,"hile":3697,"thetic":3698,"Ġsupernat":3699,"apped":3700,"Ġdeliver":3701,"Ġharmon":3702,"ĠCAFs":3703,"ĠTAMs":3704,"Ġconclude":3705,"Ġadenocarcinoma":3706,"Ġpathologists":3707,"Ġplasma":3708,"ORT":3709,"RSORT":3710,"Where":3711,"Ġcreate":3712,"Ġfailed":3713,"Ġsuccessful":3714,"Ġqualitatively":3715,"Ġchallenging":3716,"ĠAllen":3717,"restingly":3718,"Ġhostile":3719,"Ġsteps":3720,"Ġhepat":3721,"Ġpoint":3722,"Ġobtained":3723,"Ġconfirm":3724,"Ġelucidated":3725,"Ġprostaglandin":3726,"Ġdigital":3727,"Ġbackground":3728,"Ġhomeostasis":3729,"3255":3730,"Finally":3731,"correlated":3732,"Î¼M":3733,"Ġswitch":3734,"Ġoverexpress":3735,"Ġeverolimus":3736,"Ġmarrow":3737,"Ġmilieu":3738,"Ġfamily":3739,"anchez":3740,"Ġimmunoediting":3741,"Interestingly":3742,"Ġabsence":3743,"Ġcandidate":3744,"existing":3745,"angiogenic":3746,"csv":3747,"tware":3748,"Ġachieved":3749,"Ġculture":3750,"onÃ§alves":3751,"Ġsoftware":3752,"Ġlaboratory":3753,"owledge":3754,"Ġaspects":3755,"Ġexhaustion":3756,"Ġsignificance":3757,"ĠSmyth":3758,"Ġplethora":3759,"Ġconsensus":3760,"Ġmultiplicative":3761,"akravarthy":3762,"Ġhistopathological":3763,"ĠCIBERSORT":3764,"29":3765,"36":3766,"45":3767,"46":3768,"57":3769,"79":3770,"80":3771,"83":3772,"85":3773,"87":3774,"91":3775,"AG":3776,"Ac":3777,"Az":3778,"AMP":3779,"ALO":3780,"Bar":3781,"Che":3782,"Coff":3783,"DUC":3784,"EA":3785,"ECM":3786,"Following":3787,"Flank":3788,"Galon":3789,"Heg":3790,"Hoch":3791,"ID":3792,"INT":3793,"Jim":3794,"Log":3795,"Luc":3796,"Like":3797,"Ma":3798,"MMP":3799,"Many":3800,"Neg":3801,"OS":3802,"PR":3803,"Pre":3804,"Rib":3805,"SN":3806,"SS":3807,"Sim":3808,"SSI":3809,"Schi":3810,"Significant":3811,"Snyder":3812,"Sanchez":3813,"SEA":3814,"Trans":3815,"Util":3816,"ULT":3817,"USSI":3818,"Wang":3819,"Wilcoxon":3820,"YC":3821,"YT":3822,"],":3823,"aher":3824,"aren":3825,"bed":3826,"cell":3827,"cle":3828,"core":3829,"correlation":3830,"db":3831,"di":3832,"des":3833,"dep":3834,"denti":3835,"dividual":3836,"ek":3837,"eam":3838,"ements":3839,"fer":3840,"function":3841,"focal":3842,"ges":3843,"gse":3844,"gether":3845,"hal":3846,"hub":3847,"iam":3848,"ioss":3849,"jur":3850,"kw":3851,"mo":3852,"min":3853,"mal":3854,"mis":3855,"mic":3856,"mod":3857,"malign":3858,"ois":3859,"pm":3860,"put":3861,"pose":3862,"rid":3863,"rup":3864,"su":3865,"sup":3866,"syn":3867,"stitute":3868,"solid":3869,"ton":3870,"tor":3871,"tun":3872,"ture":3873,"tment":3874,"vious":3875,"volution":3876,"want":3877,"ward":3878,"xed":3879,"Â°":3880,"Ã¶":3881,"ÃŃ":3882,"Ġ\"":3883,"Ġjus":3884,"ĠÎ²":3885,"inn":3886,"ining":3887,"inde":3888,"Ġtak":3889,"Ġteam":3890,"ret":3891,"ata":3892,"atform":3893,"Ġcues":3894,"Ġcross":3895,"Ġcyclooxygenase":3896,"onic":3897,"onom":3898,"ending":3899,"environment":3900,"erine":3901,"Ġsites":3902,"ane":3903,"anaher":3904,"Ġpe":3905,"Ġpep":3906,"Ġprin":3907,"Ġinjur":3908,"esions":3909,"alkw":3910,"elt":3911,"elens":3912,"tially":3913,"Ġwil":3914,"itov":3915,"ingu":3916,"Ġmast":3917,"Ġmelan":3918,"Ġfos":3919,"Ġfib":3920,"Ġfore":3921,"Ġfund":3922,"Ġfocal":3923,"arcom":3924,"icos":3925,"ouk":3926,"Ġday":3927,"Ġdose":3928,"Ġdendritic":3929,"resident":3930,"elly":3931,"ellens":3932,"Ġbesp":3933,"ash":3934,"asation":3935,"200":3936,"Ġalign":3937,"Ġalmost":3938,"entles":3939,"ĠĠĠ":3940,"ĠPFS":3941,"ĠPAAD":3942,"Ġtools":3943,"Ġtogether":3944,"Ġlever":3945,"Ġlater":3946,"Ġlesions":3947,"umet":3948,"umac":3949,"uminex":3950,"ama":3951,"ambre":3952,"omogene":3953,"Ġthresh":3954,"TIL":3955,"TION":3956,"Ġhierarch":3957,"Ġhomogene":3958,"etinger":3959,"Ġprobes":3960,"aced":3961,"acellular":3962,"acrine":3963,"ĠCX":3964,"ĠCast":3965,"ĠCentre":3966,"ĠCopyright":3967,"ĠCESC":3968,"ulated":3969,"ĠTN":3970,"ĠTo":3971,"ĠTNF":3972,"veill":3973,"Ġnor":3974,"Ġnivol":3975,"Ġexpec":3976,"Ġinferred":3977,"Ġsust":3978,"uslan":3979,"ided":3980,"uted":3981,"tering":3982,"even":3983,"herap":3984,"ights":3985,"presses":3986,"Ġresour":3987,"Ġrespective":3988,"Ġresident":3989,"urn":3990,"osis":3991,"osyan":3992,"Ġconn":3993,"iving":3994,"abr":3995,"ified":3996,"ible":3997,"chts":3998,"Ġvir":3999,"Ġstreng":4000,"Ġstored":4001,"apse":4002,"allel":4003,"ersed":4004,"Ġareas":4005,"Ġwash":4006,"Ġwashed":4007,"Ġont":4008,"ĠMill":4009,"Ġ18":4010,"Ġ1000":4011,"cep":4012,"ope":4013,"opo":4014,"opt":4015,"opies":4016,"opto":4017,"ĠSA":4018,"athan":4019,"Ġgran":4020,"Ġgained":4021,"Ġgiven":4022,"Ġinduce":4023,"Ġdepletion":4024,"iring":4025,"ffer":4026,"Ġenabl":4027,"uez":4028,"Ġmodern":4029,"ĠRam":4030,"ĠRPPA":4031,"Ġscul":4032,"arily":4033,"Ġdisplay":4034,"ogens":4035,"ogenous":4036,"003":4037,"tumoural":4038,"Ġrates":4039,"Ġchapter":4040,"Ġsurger":4041,"Ġactivate":4042,"ĠHALO":4043,"Ġevolution":4044,"Ġevolve":4045,"Ġsampling":4046,"Ġregion":4047,"Ġregard":4048,"Ġregimens":4049,"ĠDub":4050,"ĠDepMap":4051,"perty":4052,"ĠâĢ¢":4053,"oxia":4054,"oxplots":4055,"ĠAr":4056,"ĠAyers":4057,"forms":4058,"Ġstruc":4059,"Ġstrata":4060,"Ġlowest":4061,"astoma":4062,"astatic":4063,"Ġ2003":4064,"ĠGarnett":4065,"ĠGSEA":4066,"Ġdifferences":4067,"avel":4068,"avasation":4069,"ĠLi":4070,"ĠLower":4071,"ĠLuminex":4072,"Ġprecur":4073,"Ġplatform":4074,"fier":4075,"Ġmedium":4076,"RACT":4077,"oke":4078,"Ġconsists":4079,"Ġphenomen":4080,"ĠILC":4081,"blastoma":4082,"tood":4083,"portal":4084,"Ġsupplementary":4085,"Ġproteomics":4086,"hang":4087,"Ġcontin":4088,"Ġcarry":4089,"Ġoutl":4090,"Ġincor":4091,"Ġchemot":4092,"Ġselect":4093,"plemented":4094,"ajlic":4095,"lecular":4096,"acrophage":4097,"Ġ40":4098,"Ġparacrine":4099,"Ġappend":4100,"Ġtranscriptome":4101,"ova":4102,"Ġproductive":4103,"Ġ500":4104,"Ġelements":4105,"izi":4106,"Ġamount":4107,"HCA":4108,"comp":4109,"combin":4110,"Ġrefer":4111,"Ġintracellular":4112,"Ġdownregulated":4113,"otherapy":4114,"akag":4115,"Ġseek":4116,"Ġcolon":4117,"Ġcoloured":4118,"Ġtryp":4119,"Ġtrained":4120,"Ġtargetable":4121,"Ġdiscrim":4122,"Ġimmunotherapeutic":4123,"markably":4124,"Ġregulation":4125,"Ġmeans":4126,"Ġmeaning":4127,"Ġcarcinogenesis":4128,"ialised":4129,"Ġhypoxia":4130,"Ġperforming":4131,"inflamm":4132,"Ġworking":4133,"ibrotic":4134,"ĠVariable":4135,"ĠIntell":4136,"ĠInstitute":4137,"Ġconfound":4138,"Ġconfluence":4139,"Ġdistingu":4140,"Ġblocking":4141,"SCUSSI":4142,"Ġmostly":4143,"Ġgeneral":4144,"Ġclonality":4145,"Ġunderstood":4146,"Ġapproval":4147,"Ġsequenced":4148,"Ġpatches":4149,"Ġcytotoxicity":4150,"Ġspeculate":4151,"Ġspectrom":4152,"Ġspecialised":4153,"ĠProperty":4154,"Ġendogenous":4155,"iferative":4156,"Ġspatially":4157,"Ġsystematic":4158,"Considering":4159,"Ġmarker":4160,"ĠPTGE":4161,"Ġmetabolites":4162,"Ġoppos":4163,"Ġinvas":4164,"Ġleave":4165,"Ġquantification":4166,"Ġplots":4167,"Ġadvancing":4168,"Ġhistology":4169,"airs":4170,"Ġsimpl":4171,"ordingly":4172,"Ġdoes":4173,"Ġgenetically":4174,"Ġenzyme":4175,"Ġmeasurements":4176,"Ġfrequent":4177,"Ġproviding":4178,"plete":4179,"Ġcollated":4180,"ĠTPM":4181,"Ġprofoundly":4182,"Ġdemonstrating":4183,"Green":4184,"III":4185,"ĠJerby":4186,"ĠJiang":4187,"Ġsynthetic":4188,"Ġequal":4189,"Ġfiltering":4190,"Ġcovariate":4191,"Chakravarthy":4192,"uchi":4193,"enez":4194,"Ġwidely":4195,"Ġfavourable":4196,"Ġfavourably":4197,"Ġencoded":4198,"Ġcomprises":4199,"Ġparameter":4200,"Ġmicroenvironment":4201,"Ġrecruited":4202,"Ġhighlighting":4203,"analyses":4204,"Ġprospective":4205,"Ġheterogeneously":4206,"Ġfacilitates":4207,"Ġfacilitating":4208,"EMT":4209,"Ġaimed":4210,"Ġimprove":4211,"Ġrestrain":4212,"ĠMcGranahan":4213,"Ġengage":4214,"Ġcomputed":4215,"Ġsubsequent":4216,"Ġprofiles":4217,"Ġseparately":4218,"RESULT":4219,"Ġinstead":4220,"Ġflavour":4221,"Ġrapidly":4222,"ĠHRs":4223,"Ġaccurately":4224,"Ġaccuracy":4225,"Ġneoplastic":4226,"ĠExample":4227,"STRACT":4228,"raun":4229,"Ġinstance":4230,"Ġdevi":4231,"Ġacquire":4232,"Ġadenosine":4233,"Ġevaluated":4234,"Ġplastic":4235,"Ġphagocytes":4236,"Ġkilling":4237,"RODUC":4238,"Remarkably":4239,"TMB":4240,"Ġaids":4241,"Ġdynamics":4242,"ĠSchumac":4243,"Ġstatistical":4244,"Ġstatistically":4245,"Ġquantitatively":4246,"metastatic":4247,"Ġcode":4248,"Ġoccur":4249,"Ġanalyse":4250,"Ġconcentrations":4251,"Ġchromos":4252,"Ġsurrogate":4253,"Ġpharmacological":4254,"Ġedges":4255,"ervised":4256,"Ġslides":4257,"Ġinitial":4258,"Ġdense":4259,"Ġharnessed":4260,"Ġprotoc":4261,"Inflammatory":4262,"ĠBao":4263,"ĠHugo":4264,"ĠEvents":4265,"ĠLeun":4266,"Ġroutine":4267,"taneously":4268,"ABSTRACT":4269,"Accordingly":4270,"CSF":4271,"DISCUSSI":4272,"MDMs":4273,"Medzh":4274,"PTGS":4275,"dataset":4276,"Ġultimately":4277,"Ġuterine":4278,"ĠÎ³Î´T":4279,"anoids":4280,"Ġmorphology":4281,"Ġthymus":4282,"transform":4283,"Ġclosely":4284,"Ġguide":4285,"Ġprogressively":4286,"eproductions":4287,"Ġdifficult":4288,"Ġprevalent":4289,"ĠUpper":4290,"ĠThommen":4291,"Azizi":4292,"Coffelt":4293,"Hegde":4294,"Hochberg":4295,"INTRODUC":4296,"Ribas":4297,"Schietinger":4298,"Transcrip":4299,"gsea":4300,"iossone":4301,"malignant":4302,"ridman":4303,"supervised":4304,"Ġjust":4305,"onomous":4306,"Ġprinci":4307,"Ġinjury":4308,"alkwill":4309,"Ġwild":4310,"Ġmelanomas":4311,"Ġfoster":4312,"arcomas":4313,"ellenstein":4314,"Ġbespoke":4315,"umetinib":4316,"ambrechts":4317,"Ġhomogeneous":4318,"veillance":4319,"Ġnivolumab":4320,"uslander":4321,"ĠMiller":4322,"optotic":4323,"Ġregardless":4324,"ĠDubois":4325,"Ġprecurs":4326,"Ġdiscriminate":4327,"Ġspectrometry":4328,"RESULTS":4329,"ĠSchumacher":4330,"DISCUSSION":4331,"Medzhitov":4332,"INTRODUCTION":4333,"%)":4334,")\"":4335,")-":4336,"-,":4337,"/)":4338,"03":4339,"08":4340,"120":4341,"105":4342,"150":4343,"22":4344,"41":4345,"44":4346,"48":4347,"52":4348,"67":4349,"68":4350,"77":4351,"81":4352,"84":4353,"90":4354,"96":4355,"AK":4356,"Ap":4357,"At":4358,"Auslander":4359,"BC":4360,"BL":4361,"BM":4362,"Be":4363,"Bech":4364,"BRS":4365,"Balkwill":4366,"Cu":4367,"Cristescu":4368,"Crucially":4369,"CYT":4370,"De":4371,"DCs":4372,"Drug":4373,"EC":4374,"EAD":4375,"EGFR":4376,"Far":4377,"GU":4378,"Gr":4379,"GRC":4380,"Gajewski":4381,"Genes":4382,"GonÃ§alves":4383,"HN":4384,"Hu":4385,"Hut":4386,"IP":4387,"IGU":4388,"Jerby":4389,"Kn":4390,"LI":4391,"LU":4392,"Lev":4393,"Lines":4394,"LEM":4395,"Liao":4396,"MB":4397,"ME":4398,"Mo":4399,"Mut":4400,"Mod":4401,"Macroph":4402,"MHC":4403,"MSI":4404,"Master":4405,"Masc":4406,"NK":4407,"Nanostring":4408,"NCIH":4409,"Nardo":4410,"Nathan":4411,"OBE":4412,"Points":4413,"Puram":4414,"QC":4415,"Qu":4416,"Quez":4417,"RF":4418,"RY":4419,"Red":4420,"Ref":4421,"Rather":4422,"RELA":4423,"SU":4424,"St":4425,"Str":4426,"Sch":4427,"Sub":4428,"Single":4429,"STA":4430,"Score":4431,"Sakag":4432,"TF":4433,"TX":4434,"Tal":4435,"Target":4436,"TLS":4437,"TBRS":4438,"Up":4439,"Van":4440,"WES":4441,"What":4442,"Yu":4443,"ait":4444,"ares":4445,"aut":4446,"ared":4447,"aem":4448,"ault":4449,"aelens":4450,"bs":4451,"bac":4452,"cellular":4453,"cert":4454,"counter":4455,"cano":4456,"ded":4457,"dMM":4458,"eq":4459,"eed":4460,"eath":4461,"fibroblast":4462,"gers":4463,"gram":4464,"ho":4465,"houk":4466,"iot":4467,"iol":4468,"iri":4469,"iens":4470,"iCA":4471,"ienced":4472,"jam":4473,"ked":4474,"lut":4475,"lab":4476,"lia":4477,"latel":4478,"mp":4479,"mit":4480,"mate":4481,"ns":4482,"nine":4483,"nition":4484,"oat":4485,"obin":4486,"oone":4487,"otide":4488,"pen":4489,"pir":4490,"points":4491,"rit":4492,"run":4493,"ray":4494,"rary":4495,"rplot":4496,"sign":4497,"sure":4498,"sap":4499,"sens":4500,"sub":4501,"significant":4502,"tur":4503,"usive":4504,"uech":4505,"wer":4506,"while":4507,"xici":4508,"yl":4509,"ycle":4510,"zy":4511,"Ã©":4512,"ÅĽ":4513,"Ġ~":4514,"Ġur":4515,"ĠGE":4516,"ĠZelenay":4517,"Ġaver":4518,"Ġafore":4519,"ind":4520,"ino":4521,"initions":4522,"Ġtack":4523,"Ġtables":4524,"Ġtested":4525,"ref":4526,"rehen":4527,"rect":4528,"reiber":4529,"atistic":4530,"Ġcou":4531,"Ġcul":4532,"Ġcalled":4533,"Ġcrucially":4534,"Ġcopies":4535,"Ġcycle":4536,"onsist":4537,"onvolution":4538,"enesc":4539,"enjam":4540,"erations":4541,"erhan":4542,"Ġsom":4543,"Ġsex":4544,"Ġstil":4545,"Ġsite":4546,"Ġsearch":4547,"Ġsmall":4548,"Ġseven":4549,"Ġsarcomas":4550,"Ġsenesc":4551,"annot":4552,"Ġple":4553,"Ġpol":4554,"Ġpron":4555,"Ġportal":4556,"Ġparen":4557,"Ġox":4558,"Ġinstr":4559,"esides":4560,"ales":4561,"alance":4562,"Ġantic":4563,"orti":4564,"orig":4565,"eding":4566,"edical":4567,"Ġway":4568,"isition":4569,"isions":4570,"Ġeicos":4571,"itor":4572,"ited":4573,"ithelial":4574,"Ġmag":4575,"Ġmass":4576,"Ġmount":4577,"Ġmuch":4578,"Ġmaps":4579,"Ġmapped":4580,"igor":4581,"Ġfun":4582,"Ġfine":4583,"Ġ(*":4584,"ars":4585,"ice":4586,"iction":4587,"icentre":4588,"oul":4589,"outs":4590,"Ġdim":4591,"Ġdos":4592,"Ġbalance":4593,"ason":4594,"asure":4595,"2012":4596,"Ġalike":4597,"Ġaltern":4598,"Ġalbe":4599,"ĠPI":4600,"ĠPt":4601,"Ġtoxici":4602,"Ġlab":4603,"Ġleng":4604,"amental":4605,"omal":4606,"omach":4607,"Ġthous":4608,"Ġhttp":4609,"Ġprop":4610,"immun":4611,"otti":4612,"lect":4613,"activ":4614,"acts":4615,"acted":4616,"actively":4617,"ĠCl":4618,"ĠCristescu":4619,"ula":4620,"ulf":4621,"ĠTHCA":4622,"owski":4623,"Ġnic":4624,"Ġnam":4625,"Ġnomen":4626,"Ġassem":4627,"Ġextern":4628,"urenine":4629,"Ġrely":4630,"Ġreaction":4631,"Ġreduc":4632,"Ġreduce":4633,"Ġrelev":4634,"Ġreverse":4635,"Ġreason":4636,"seud":4637,"sect":4638,"Ġinfected":4639,"Ġinfection":4640,"tract":4641,"ecting":4642,"ĠIII":4643,"ĠIdenti":4644,"Ġcancerous":4645,"idonic":4646,"uting":4647,"ilent":4648,"ilowski":4649,"olves":4650,"olcano":4651,"ateful":4652,"ighbour":4653,"uration":4654,"urvival":4655,"urrence":4656,"Ġconcert":4657,"odynamic":4658,"sions":4659,"ives":4660,"Ġimmunogen":4661,"ĠĠĠĠĠ":4662,"ibrary":4663,"Ġvast":4664,"Ġvary":4665,"Ġstomach":4666,"apes":4667,"apour":4668,"agi":4669,"adr":4670,"ads":4671,"adox":4672,"Ġcomb":4673,"alls":4674,"pled":4675,"plar":4676,"ploy":4677,"rial":4678,"riad":4679,"Ġonce":4680,"Ġonset":4681,"Ġongoing":4682,"ĠMell":4683,"ĠMCP":4684,"ĠMYC":4685,"ĠMacrophage":4686,"ĠNext":4687,"ĠNishida":4688,"ĠSt":4689,"ĠSal":4690,"ĠShi":4691,"ĠSnyder":4692,"ĠSaeys":4693,"ĠSaelens":4694,"Ġadren":4695,"Ġgood":4696,"Ġindeed":4697,"ognition":4698,"upy":4699,"Ġdeb":4700,"Ġdegrad":4701,"ira":4702,"Ġunivers":4703,"Ġunlik":4704,"Ġunsupervised":4705,"ffect":4706,"Individual":4707,"Ġmodule":4708,"Ġmodelling":4709,"vering":4710,"ously":4711,"oussens":4712,"ĠRia":4713,"ĠRTK":4714,"ĠRuff":4715,"ĠRAS":4716,"ĠRCC":4717,"ĠReproductions":4718,"ĠRho":4719,"Ġscann":4720,"ification":4721,"Ġhaemat":4722,"Ġcompute":4723,"Ġcomprehen":4724,"clature":4725,"Ġdismal":4726,"Ġdisrup":4727,"Ġ025":4728,"Ġwhy":4729,"Ġwhom":4730,"Ġpathogenic":4731,"Ġpathogens":4732,"Ġcorrelative":4733,"Ġneighbour":4734,"ounts":4735,"ounced":4736,"Ġrun":4737,"Ġradi":4738,"Ġsubjected":4739,"ĠBl":4740,"ĠBraun":4741,"ĠBMDMs":4742,"ĠBrun":4743,"ĠBenjam":4744,"Ġchance":4745,"issue":4746,"Ġsurv":4747,"ĠHa":4748,"Ġpande":4749,"Ġevent":4750,"Ġevident":4751,"Ġregress":4752,"ĠDown":4753,"ĠDanaher":4754,"performs":4755,"Ġhere":4756,"Ġheatmap":4757,"thase":4758,"ĠAREG":4759,"ĠKr":4760,"ĠKumar":4761,"ĠFu":4762,"ĠFIGU":4763,"Ġotherwise":4764,"Ġiterations":4765,"ĠGZ":4766,"ĠGene":4767,"ĠGraph":4768,"Ġdifference":4769,"avoured":4770,"Ġquadr":4771,"ĠLack":4772,"ĠLambrechts":4773,"achidonic":4774,"Ġstudied":4775,"ĠWhat":4776,"Ġplated":4777,"Ġplace":4778,"Ġplaced":4779,"Ġpertur":4780,"Ġmedia":4781,"Ġeffective":4782,"Ġconscrip":4783,"Ġatten":4784,"Ġcannot":4785,"blue":4786,"Ġsuppression":4787,"Ġsuppresses":4788,"Ġsupplemented":4789,"ocytosis":4790,"Ġcontained":4791,"Ġcontains":4792,"Ġindices":4793,"Ġindicators":4794,"Ġmeasures":4795,"Ġoutperforms":4796,"Ġincom":4797,"Ġinconsist":4798,"Ġselumetinib":4799,"Ġinfiltrated":4800,"extrinsic":4801,"expression":4802,"icians":4803,"iverse":4804,"Ġvariant":4805,"ĠOn":4806,"ĠOur":4807,"ĠOld":4808,"Ġpartially":4809,"Ġparallel":4810,"Ġoverlo":4811,"Ġovercome":4812,"Ġdetecting":4813,"ĠNKG":4814,"Ġbeneath":4815,"Ġkyn":4816,"Ġelim":4817,"Ġelusive":4818,"Ġdefault":4819,"Ġdefinitions":4820,"ized":4821,"Ġamino":4822,"Ġreflect":4823,"aking":4824,"justed":4825,"Ġremod":4826,"Ġremain":4827,"Ġremove":4828,"Ġcharacterised":4829,"Ġsecret":4830,"Ġidentification":4831,"load":4832,"Ġpoorly":4833,"Ġdevelopmentally":4834,"orylation":4835,"Ġprevent":4836,"Ġtraining":4837,"ocytic":4838,"Ġmyof":4839,"Ġmyriad":4840,"Ġimmunotherapies":4841,"Ġaccord":4842,"Ġantigens":4843,"Ġregulate":4844,"Ġregulates":4845,"Ġstratify":4846,"Ġintratumourally":4847,"Ġexperience":4848,"Ġoncogene":4849,"utrophils":4850,"Ġcaptures":4851,"Ġcapture":4852,"Ġspace":4853,"Ġspread":4854,"Ġextraction":4855,"Ġmanif":4856,"Ġmicros":4857,"Ġchecked":4858,"Ġupregulate":4859,"emplar":4860,"ĠVan":4861,"ĠVEGF":4862,"ĠVolcano":4863,"Ġdepending":4864,"Ġcompartment":4865,"Ġsequence":4866,"ĠUV":4867,"Ġarachidonic":4868,"Ġdistant":4869,"Ġcalculate":4870,"heli":4871,"Ġdivergent":4872,"ĠConsidering":4873,"Ġgenerated":4874,"Ġgenerate":4875,"Ġcommonal":4876,"Ġcommonly":4877,"Ġadvance":4878,"Ġapproximately":4879,"Ġtimep":4880,"Ġbind":4881,"Ġbinds":4882,"Ġtreatments":4883,"Ġsequences":4884,"Ġmonotherapy":4885,"Ġmonitor":4886,"Ġrecurrence":4887,"Ġrecognition":4888,"Ġ96":4889,"ĠCPM":4890,"Ġcurated":4891,"Ġspecimens":4892,"Ġexplo":4893,"Ġexplor":4894,"Ġformula":4895,"Ġdifferentially":4896,"hai":4897,"presenting":4898,"Ġwhereby":4899,"1159":4900,"McFar":4901,"Ġspecificity":4902,"Ġpublication":4903,"ĠPTEN":4904,"Ġmetabolic":4905,"Ġmetabolomics":4906,"Another":4907,"Analysis":4908,"luores":4909,"Ġoptimal":4910,"Ġinvolve":4911,"Ġinvolves":4912,"Ġclasses":4913,"Ġquantile":4914,"TARY":4915,"coding":4916,"efficient":4917,"Ġhistor":4918,"Ġhistological":4919,"ĠChar":4920,"ĠChinn":4921,"Ġconverts":4922,"Ġconverge":4923,"Ġconvergence":4924,"ttcher":4925,"Ġdoing":4926,"Ġenzymatic":4927,"antigenic":4928,"Ġchemoat":4929,"Ġinvestigation":4930,"Ġinvestigated":4931,"Ġprimarily":4932,"Ġepithelial":4933,"Ġepicentre":4934,"Ġprovides":4935,"Ġproliferate":4936,"Immuno":4937,"eglia":4938,"ieÅĽ":4939,"ĠcDCs":4940,"Ġsolid":4941,"Ġlimma":4942,"TISlow":4943,"Ġexcluded":4944,"Ġretained":4945,"Ġantagonises":4946,"MPRES":4947,"Ġsynapse":4948,"Ġsynthase":4949,"Ġstimuli":4950,"Ġstimulate":4951,"Ġequival":4952,"Ġgrant":4953,"Ġgrad":4954,"Ġgrade":4955,"Ġgrateful":4956,"Ġenhance":4957,"Ġsupporting":4958,"Chapter":4959,"HRs":4960,"Ġtechnical":4961,"Ġmatched":4962,"Ġmaturation":4963,"Ġdrivers":4964,"Ġdamaged":4965,"Ġrepresenting":4966,"Ġinducing":4967,"Ġencodes":4968,"Ġsuppressing":4969,"Ġhighlights":4970,"Ġillustrate":4971,"Salmon":4972,"Ġcorrplot":4973,"Ġprosper":4974,"Ġprospectively":4975,"Ġstandards":4976,"Ġclassifier":4977,"Ġconsideration":4978,"Ġleading":4979,"Ġfacilitate":4980,"PPLEM":4981,"Unlike":4982,"Ġaffects":4983,"Ġcirc":4984,"Ġseries":4985,"Ġlargely":4986,"ĠMcdermott":4987,"ĠLUAD":4988,"Ġelevate":4989,"Ġdeterminants":4990,"Ġconcomitantly":4991,"obank":4992,"Ġdeconvolution":4993,"Ġdecisions":4994,"Ġbarplot":4995,"apping":4996,"Ġassessment":4997,"Ġknowledge":4998,"ĠInflammatory":4999,"Ġestablishment":5000,"Ġneoplasia":5001,"Ġneoplasms":5002,"score":5003,"ĠZhang":5004,"Ġskin":5005,"Ġinstability":5006,"rowaeys":5007,"Ġembed":5008,"Ġdevoid":5009,"level":5010,"ĠCAF":5011,"Ġreadouts":5012,"Ġconcluded":5013,"Ġacquisition":5014,"Ġevaluate":5015,"ĠAPC":5016,"ĠAPCs":5017,"ĠAPOBE":5018,"Ġsecondly":5019,"Ġhelped":5020,"Ġmaximum":5021,"TME":5022,"Tumours":5023,"Whether":5024,"biased":5025,"nez":5026,"Ġtolerance":5027,"Ġexhibits":5028,"Ġexhibited":5029,"ĠSchreiber":5030,"Ġgraphs":5031,"expressed":5032,"Ġrelationships":5033,"ĠĠĠĠĠĠĠĠĠĠĠĠĠĠĠĠĠĠĠĠĠĠĠĠĊ":5034,"ĠĠĠĠĠĠĠĠĠĠĠĠĠĠĠĠĠĠĠĠĠĠĠĠĠĠĊ":5035,"Ġrandomly":5036,"Ġrequirement":5037,"Ġquantitative":5038,"Ġqualitative":5039,"Ġcollaborate":5040,"Ġchallenges":5041,"Ġcomplexity":5042,"Herein":5043,"mentioned":5044,"Ġoccupy":5045,"Ġanalytical":5046,"Ġbrain":5047,"Ġnuclei":5048,"Ġconcentration":5049,"Ġgli":5050,"Ġresponded":5051,"Ġmodulators":5052,"Ġinterrogated":5053,"Ġinterrogating":5054,"Ġsubversion":5055,"Ġsurrogates":5056,"Ġphosphopro":5057,"Ġphosphorylation":5058,"Ġpharmacodynamic":5059,"Ġcirculation":5060,"Ġcirculating":5061,"ENTARY":5062,"affin":5063,"concept":5064,"stimulation":5065,"stimulatory":5066,"icking":5067,"Ġdiagnos":5068,"Ġallowing":5069,"ĠTurley":5070,"ĠTurajlic":5071,"Ġrepair":5072,"Ġsuscep":5073,"ĠSTAT":5074,"Ġenvironmental":5075,"Ġstrategies":5076,"ĠGuo":5077,"ĠLIF":5078,"ĠLIHC":5079,"Ġdetailed":5080,"Ġmanipulate":5081,"Ġsimultaneously":5082,"Ġlipids":5083,"Ġloops":5084,"Biomarker":5085,"Multi":5086,"Markosyan":5087,"Sahai":5088,"aiyan":5089,"aux":5090,"download":5091,"lasting":5092,"middle":5093,"Ġtrend":5094,"Ġsummary":5095,"Ġpersonal":5096,"ropic":5097,"restrictive":5098,"Ġreprogram":5099,"Ġvery":5100,"Ġvisualisation":5101,"Ġorgans":5102,"Ġmoderate":5103,"Ġmodalities":5104,"Ġsubstantially":5105,"Ġpreceding":5106,"Ġperipheral":5107,"Ġconstitutes":5108,"Ġconstructed":5109,"Ġtriggers":5110,"Ġoptimisation":5111,"Ġgreatly":5112,"Ġsupernatants":5113,"Ġharmonised":5114,"Ġsuccessfully":5115,"Ġoverexpressed":5116,"Jimenez":5117,"Lucotti":5118,"Likewise":5119,"Negative":5120,"SNE":5121,"Similar":5122,"Utilising":5123,"depmap":5124,"modal":5125,"Ã¶ttcher":5126,"ĠÎ²catenin":5127,"indea":5128,"Ġtaken":5129,"Ġfibrosis":5130,"Ġfundamental":5131,"Ġleveraged":5132,"Ġthreshold":5133,"Ġhierarchical":5134,"ĠCXC":5135,"Ġexpected":5136,"herapies":5137,"abrita":5138,"Ġvirus":5139,"Ġstrength":5140,"ĠSAGE":5141,"Ġgranul":5142,"ĠRamos":5143,"Ġsculpt":5144,"Ġstructures":5145,"Ġphenomenon":5146,"Ġincorpor":5147,"Ġappendix":5148,"inflammatory":5149,"ĠIntellectual":5150,"Ġconfounded":5151,"Ġdistinguish":5152,"ĠPTGER":5153,"Ġopposing":5154,"Ġflavours":5155,"Ġdeviance":5156,"Ġplasticity":5157,"Ġchromosomal":5158,"Ġprotocol":5159,"Ġprinciples":5160,"Ġfosters":5161,"Becht":5162,"Grail":5163,"Hutton":5164,"Levy":5165,"Macrophages":5166,"Mascaux":5167,"Quezada":5168,"SUPPLEM":5169,"Sakaguchi":5170,"TXA":5171,"Talhouk":5172,"Targeting":5173,"Yuen":5174,"autonomous":5175,"bacco":5176,"dMMR":5177,"iotropic":5178,"ooney":5179,"pirin":5180,"sapiens":5181,"uechler":5182,"Ġaverage":5183,"Ġaforementioned":5184,"Ġtackle":5185,"atistical":5186,"Ġsomatic":5187,"Ġstill":5188,"Ġsenescence":5189,"Ġpleiotropic":5190,"Ġparenchymal":5191,"Ġanticip":5192,"origin":5193,"Ġmagn":5194,"Ġalbeit":5195,"Ġtoxicities":5196,"Ġlength":5197,"Ġthousands":5198,"Ġnomenclature":5199,"Ġimmunogenomic":5200,"ĠMCPcounter":5201,"Ġdegradation":5202,"Ġuniversally":5203,"Ġunlikely":5204,"ĠRiaz":5205,"ĠRuffell":5206,"ĠBruni":5207,"ĠBenjamini":5208,"Ġpandemic":5209,"ĠDownstream":5210,"ĠFIGURES":5211,"Ġoverlook":5212,"Ġkynurenine":5213,"Ġaccordance":5214,"115978":5215,"McFarland":5216,"ĠChinnaiyan":5217,"ieÅĽlik":5218,"ĠAPOBEC":5219,"Ġsuscepti":5220,"Ġreprogramming":5221,"SUPPLEMENTARY":5222,");":5223,"-/":5224,"14":5225,"100":5226,"27":5227,"32":5228,"34":5229,"35":5230,"37":5231,"42":5232,"43":5233,"58":5234,"500":5235,"61":5236,"63":5237,"64":5238,"600":5239,"71":5240,"72":5241,"82":5242,"88":5243,"92":5244,"97":5245,"98":5246,"99":5247,"=âĢĿ":5248,"Ad":5249,"Ag":5250,"Am":5251,"Au":5252,"Aw":5253,"ATP":5254,"Amid":5255,"Bro":5256,"Bot":5257,"Based":5258,"BRAF":5259,"Boxplots":5260,"Browaeys":5261,"Bindea":5262,"CO":5263,"Cre":5264,"Cam":5265,"Cur":5266,"Cir":5267,"Cox":5268,"Cyclooxygenase":5269,"Carthy":5270,"Copyright":5271,"Canon":5272,"CEC":5273,"Ciri":5274,"Coussens":5275,"Counts":5276,"Cabrita":5277,"CieÅĽlik":5278,"DC":5279,"Dv":5280,"Dis":5281,"Dec":5282,"Doc":5283,"Dys":5284,"DGE":5285,"Dav":5286,"DRA":5287,"DDR":5288,"DTA":5289,"Deep":5290,"Dann":5291,"Does":5292,"Dendritic":5293,"Dobin":5294,"Ex":5295,"Each":5296,"Effect":5297,"EDTA":5298,"FI":5299,"From":5300,"Feld":5301,"FFPE":5302,"Fridman":5303,"GG":5304,"Gor":5305,"Germ":5306,"GCT":5307,"Garc":5308,"Garnett":5309,"Gentles":5310,"Ho":5311,"Han":5312,"Ham":5313,"Hom":5314,"High":5315,"Hake":5316,"Havel":5317,"IR":5318,"IV":5319,"Ja":5320,"Jiang":5321,"Kim":5322,"KRAS":5323,"KÎ³":5324,"Kumar":5325,"Le":5326,"Long":5327,"Lang":5328,"LCA":5329,"Later":5330,"Law":5331,"Lane":5332,"LBC":5333,"ML":5334,"My":5335,"Mer":5336,"Major":5337,"MTA":5338,"Mart":5339,"Munn":5340,"NB":5341,"ND":5342,"No":5343,"Num":5344,"NFÎºB":5345,"New":5346,"Nie":5347,"Nishida":5348,"OLR":5349,"PV":5350,"Po":5351,"Pon":5352,"Per":5353,"Pad":5354,"Phen":5355,"Prog":5356,"Pairwise":5357,"PAAD":5358,"Pelly":5359,"Platel":5360,"RG":5361,"Ra":5362,"Ram":5363,"Rod":5364,"Riz":5365,"Reg":5366,"RTK":5367,"RPPA":5368,"RIN":5369,"Rooney":5370,"SD":5371,"Sm":5372,"Sel":5373,"Sup":5374,"Sade":5375,"Spar":5376,"Signature":5377,"Small":5378,"Serhan":5379,"Sagi":5380,"Ta":5381,"Ther":5382,"Top":5383,"Tem":5384,"Two":5385,"TOR":5386,"TRIN":5387,"UV":5388,"Ul":5389,"UCs":5390,"VID":5391,"VOS":5392,"Veglia":5393,"WG":5394,"Wh":5395,"Wall":5396,"Wald":5397,"While":5398,"Wellenstein":5399,"Xue":5400,"XIN":5401,"Zare":5402,"agen":5403,"aise":5404,"aired":5405,"ba":5406,"bd":5407,"bt":5408,"big":5409,"bar":5410,"bell":5411,"bly":5412,"bec":5413,"bations":5414,"box":5415,"bial":5416,"bility":5417,"bie":5418,"bols":5419,"breng":5420,"bbs":5421,"cre":5422,"che":5423,"cal":5424,"cor":5425,"cist":5426,"cise":5427,"cial":5428,"czer":5429,"care":5430,"cold":5431,"canon":5432,"cDC":5433,"dT":5434,"du":5435,"dar":5436,"det":5437,"dds":5438,"divid":5439,"eated":5440,"equ":5441,"egg":5442,"epresent":5443,"eij":5444,"eira":5445,"fl":5446,"fs":5447,"fit":5448,"fact":5449,"fies":5450,"fast":5451,"fect":5452,"fto":5453,"free":5454,"fold":5455,"fibrotic":5456,"gs":5457,"gt":5458,"gell":5459,"get":5460,"gos":5461,"gment":5462,"gical":5463,"gently":5464,"hm":5465,"ham":5466,"him":5467,"hors":5468,"hren":5469,"hough":5470,"hours":5471,"haps":5472,"ian":5473,"ires":5474,"ias":5475,"iet":5476,"ile":5477,"ield":5478,"jac":5479,"jects":5480,"kn":5481,"ky":5482,"kal":5483,"la":5484,"lar":5485,"lent":5486,"lot":5487,"lated":5488,"lies":5489,"lip":5490,"lational":5491,"liferative":5492,"mc":5493,"mink":5494,"minal":5495,"manchester":5496,"no":5497,"nsem":5498,"otion":5499,"oly":5500,"oantigen":5501,"oplas":5502,"oimmune":5503,"oblastoma":5504,"oScore":5505,"ozy":5506,"pit":5507,"pri":5508,"pts":5509,"pink":5510,"prim":5511,"pson":5512,"ppend":5513,"pret":5514,"persed":5515,"pbell":5516,"qc":5517,"rc":5518,"rism":5519,"rpm":5520,"sh":5521,"sin":5522,"sel":5523,"sues":5524,"selves":5525,"tou":5526,"tated":5527,"test":5528,"target":5529,"tpm":5530,"uing":5531,"utively":5532,"uged":5533,"ugment":5534,"va":5535,"vi":5536,"vat":5537,"vent":5538,"vari":5539,"vascular":5540,"versed":5541,"wa":5542,"we":5543,"went":5544,"wide":5545,"wry":5546,"wiring":5547,"xts":5548,"yro":5549,"ybr":5550,"yond":5551,"za":5552,"zen":5553,"zczer":5554,"Â±":5555,"Î±":5556,"âį":5557,"ĠX":5558,"Ġ[":5559,"Ġhen":5560,"ĠâĢĻ":5561,"Ġ75":5562,"ĠXu":5563,"Ġerr":5564,"ĠiCA":5565,"ĠYuen":5566,"Ġaro":5567,"Ġach":5568,"Ġaward":5569,"Ġaugment":5570,"Ġawry":5571,"inv":5572,"ination":5573,"inow":5574,"ince":5575,"inely":5576,"inberg":5577,"Ġter":5578,"Ġtight":5579,"Ġtem":5580,"Ġturn":5581,"recept":5582,"represent":5583,"atin":5584,"atell":5585,"atty":5586,"atural":5587,"atdar":5588,"Ġcel":5589,"Ġcour":5590,"Ġcle":5591,"Ġcount":5592,"Ġcave":5593,"Ġcerv":5594,"Ġcrit":5595,"Ġcalls":5596,"onical":5597,"heh":5598,"hep":5599,"hesive":5600,"heck":5601,"ened":5602,"ension":5603,"enable":5604,"enberg":5605,"enne":5606,"envat":5607,"eric":5608,"eria":5609,"erra":5610,"Ġsit":5611,"Ġsym":5612,"Ġseen":5613,"Ġsear":5614,"Ġside":5615,"ange":5616,"aneous":5617,"anwhile":5618,"Ġpul":5619,"Ġpow":5620,"Ġpap":5621,"Ġpast":5622,"Ġpairs":5623,"Ġpseud":5624,"Ġoes":5625,"Ġoper":5626,"Ġovari":5627,"Ġinser":5628,"Ġinverse":5629,"Ġinefficient":5630,"alf":5631,"alper":5632,"alth":5633,"alian":5634,"Ġans":5635,"ele":5636,"elines":5637,"elder":5638,"elmink":5639,"orough":5640,"orak":5641,"ortical":5642,"orces":5643,"orfs":5644,"edele":5645,"tious":5646,"tiary":5647,"tides":5648,"Ġwarr":5649,"isw":5650,"isher":5651,"isite":5652,"isability":5653,"itors":5654,"itud":5655,"itect":5656,"itoch":5657,"Ġmac":5658,"Ġmach":5659,"Ġmarg":5660,"ĠmUC":5661,"Ġmix":5662,"Ġmake":5663,"Ġmortal":5664,"atitis":5665,"igdb":5666,"Ġfigure":5667,"Ġfunctional":5668,"Ġfresh":5669,"Ġfash":5670,"Ġfibrotic":5671,"Ġfgsea":5672,"Ġfluores":5673,"Ġ(âĢ":5674,"arised":5675,"ica":5676,"icy":5677,"icin":5678,"ices":5679,"icted":5680,"ictor":5681,"ictated":5682,"Ġdog":5683,"Ġdays":5684,"Ġdone":5685,"Ġdriven":5686,"Ġdots":5687,"Ġdictated":5688,"resist":5689,"ella":5690,"Ġbrom":5691,"Ġbys":5692,"Ġbyp":5693,"Ġbod":5694,"Ġbase":5695,"Ġbcatenin":5696,"Ġbesides":5697,"asp":5698,"asting":5699,"asise":5700,"ashi":5701,"2021":5702,"2013":5703,"2019":5704,"Ġaltogether":5705,"Ġaligned":5706,"Ġaltered":5707,"ĠPow":5708,"ĠPromot":5709,"ĠPCs":5710,"ĠPeng":5711,"ĠPatients":5712,"ĠPuram":5713,"ĠPelly":5714,"ĠPegg":5715,"ĠPrism":5716,"Ġtobacco":5717,"Ġlenvat":5718,"ument":5719,"umber":5720,"umvent":5721,"ationally":5722,"aman":5723,"amine":5724,"aminant":5725,"ances":5726,"omain":5727,"omial":5728,"omedical":5729,"Ġthus":5730,"Ġthir":5731,"Ġthyro":5732,"Ġthorough":5733,"oury":5734,"Ġhit":5735,"Ġhur":5736,"Ġhand":5737,"Ġhub":5738,"Ġhapp":5739,"Ġhij":5740,"Ġhots":5741,"Ġhybr":5742,"Ġhalf":5743,"eto":5744,"eted":5745,"etent":5746,"etheless":5747,"Ġprogen":5748,"Ġproof":5749,"Ġproble":5750,"Ġproced":5751,"Ġproactively":5752,"unds":5753,"under":5754,"imum":5755,"imear":5756,"oto":5757,"otal":5758,"leag":5759,"lever":5760,"aces":5761,"active":5762,"ĠCO":5763,"ĠCyt":5764,"ĠChan":5765,"ĠCyclooxygenase":5766,"ĠCharoentong":5767,"ĠCheck":5768,"ĠCorces":5769,"ultivariate":5770,"ĠTyp":5771,"ĠThes":5772,"ĠTumeh":5773,"ĠTLS":5774,"ĠTSS":5775,"ĠTissue":5776,"ĠTGCT":5777,"ĠTeij":5778,"silent":5779,"Ġasterisk":5780,"lying":5781,"lymp":5782,"Ġexcept":5783,"Ġexists":5784,"Ġexemplar":5785,"Ġrele":5786,"Ġreper":5787,"Ġreach":5788,"Ġreduced":5789,"Ġrecombin":5790,"Ġreversed":5791,"sec":5792,"see":5793,"sequently":5794,"Ġweights":5795,"Ġinfre":5796,"Ġinfec":5797,"Ġtumourigen":5798,"tric":5799,"trate":5800,"Ġsuff":5801,"ecox":5802,"ecret":5803,"ĠIs":5804,"ĠIRF":5805,"ĠIMPRES":5806,"ustered":5807,"uskal":5808,"usinow":5809,"Ġimit":5810,"idase":5811,"iled":5812,"olated":5813,"teraction":5814,"terpar":5815,"Ġforward":5816,"oche":5817,"ocellular":5818,"ocortical":5819,"atement":5820,"herry":5821,"rombox":5822,"munity":5823,"Ġresear":5824,"Ġresem":5825,"Ġresolve":5826,"Ġresiding":5827,"Ġrestor":5828,"urately":5829,"urci":5830,"urveillance":5831,"oso":5832,"Ġconv":5833,"odo":5834,"odomain":5835,"ivation":5836,"atorial":5837,"abil":5838,"ĠĠĠĠĠĠ":5839,"ift":5840,"ify":5841,"ifuged":5842,"chors":5843,"Ġvigor":5844,"Ġstated":5845,"Ġstem":5846,"Ġstaging":5847,"apit":5848,"aping":5849,"aplan":5850,"ader":5851,"ading":5852,"adley":5853,"adjusted":5854,"adjac":5855,"Ġiso":5856,"Ġissues":5857,"Ġcommer":5858,"Ġcomplete":5859,"Ġact":5860,"Ġacts":5861,"Ġaccess":5862,"quency":5863,"quart":5864,"quiet":5865,"teomic":5866,"rier":5867,"ersely":5868,"tives":5869,"tivated":5870,"tsky":5871,"ĠMe":5872,"ĠMer":5873,"ĠMark":5874,"ĠMCA":5875,"ĠMMP":5876,"ĠMSI":5877,"ĠMICB":5878,"ĠMTOR":5879,"ĠMurci":5880,"Ġ176":5881,"ceeding":5882,"range":5883,"alysing":5884,"Ġclose":5885,"Ġclock":5886,"oprol":5887,"ĠNA":5888,"ĠNano":5889,"ĠNusinow":5890,"ayaman":5891,"Ġorches":5892,"ĠSD":5893,"ĠShe":5894,"ĠSun":5895,"ĠSav":5896,"ĠShan":5897,"ĠSub":5898,"ĠShal":5899,"ĠSwant":5900,"ĠSilent":5901,"ĠSurvival":5902,"ĠSTRIN":5903,"ĠSzczer":5904,"ĠSica":5905,"ĠSecret":5906,"ĠSayaman":5907,"Ġanalysing":5908,"Ġbeyond":5909,"phrect":5910,"Ġadds":5911,"Ġadopt":5912,"Ġgal":5913,"Ġgain":5914,"Ġgover":5915,"Ġgoes":5916,"Ġgives":5917,"ĠgdT":5918,"Ġprogressive":5919,"ogget":5920,"Ġshaded":5921,"Ġshake":5922,"Ġshaping":5923,"Ġtypical":5924,"Ġtypically":5925,"Ġresponsive":5926,"upffer":5927,"Ġdeploy":5928,"Ġassum":5929,"Ġassigned":5930,"Ġunlike":5931,"Ġunmet":5932,"Ġunrav":5933,"Ġunwant":5934,"Ġunbiased":5935,"Ġunkn":5936,"Ġenable":5937,"Ġende":5938,"Ġenables":5939,"Inf":5940,"Initi":5941,"Incre":5942,"Ġtranslation":5943,"Ġmodulate":5944,"Ġmodelled":5945,"ytoid":5946,"ĠRob":5947,"ĠRepresent":5948,"Ġsctransform":5949,"Ġbiases":5950,"Ġbiobank":5951,"Ġcompiled":5952,"class":5953,"Ġshowc":5954,"Ġdisper":5955,"Ġdissect":5956,"Ġdispersed":5957,"acting":5958,"Ġ010":5959,"Ġ009":5960,"Ġwhile":5961,"ogeny":5962,"Ġpathological":5963,"002":5964,"004":5965,"006":5966,"Ġintern":5967,"Ġinterpret":5968,"estation":5969,"heng":5970,"Ġneural":5971,"Ġnephrect":5972,"Ġassociations":5973,"ounds":5974,"ounting":5975,"pect":5976,"pecially":5977,"Ġrational":5978,"Ġraw":5979,"Ġrights":5980,"Ġraise":5981,"Ġsubunit":5982,"Ġsubmit":5983,"ĠBoxplots":5984,"ĠBÃ¶ttcher":5985,"ĠBuechler":5986,"ĠBLCA":5987,"Ġchains":5988,"Ġsurveillance":5989,"Ġsurgical":5990,"ageal":5991,"Ġactively":5992,"epit":5993,"epper":5994,"ĠHou":5995,"ĠHRAS":5996,"ĠHAS":5997,"Ġpredictions":5998,"Ġevade":5999,"âĢĻ.":6000,"Ġcovering":6001,"Ġcohesive":6002,"inson":6003,"culating":6004,"Ġmutated":6005,"Ġdiffer":6006,"Ġdiffers":6007,"ĠDES":6008,"ĠDoes":6009,"ĠDunn":6010,"ĠDiverse":6011,"ĠDLBC":6012,"perienced":6013,"ongst":6014,"ologies":6015,"Ġherein":6016,"oxed":6017,"oxplot":6018,"ghigh":6019,"ĠAI":6020,"ĠAs":6021,"ĠAu":6022,"ĠAND":6023,"ĠAbd":6024,"ĠĠĠĠĠĠĠĠĊ":6025,"ĠĠĠĠĠĠĠĠĠĠĊ":6026,"ĠĠĠĠĠĠĠĠĠĊ":6027,"ĠĠĠĠĠĠĠĠĠĠĠĠĊ":6028,"ĠEREG":6029,"ĠEdu":6030,"ĠEnsem":6031,"ĠEppend":6032,"ĠEimear":6033,"Ġ27":6034,"Ġ28":6035,"Ġourselves":6036,"illiam":6037,"ĠKa":6038,"Ġnoted":6039,"Ġnotable":6040,"ĠFast":6041,"ĠFeng":6042,"ĠFLT":6043,"ĠFridman":6044,"ĠFind":6045,"ĠFOLR":6046,"ĠFlies":6047,"Ġlowly":6048,"Ġ2007":6049,"ectin":6050,"ĠGPP":6051,"ĠGTP":6052,"ĠGalon":6053,"ĠGonÃ§alves":6054,"ĠGentles":6055,"ĠGBM":6056,"ĠGTF":6057,"RCA":6058,"aving":6059,"ĠLAG":6060,"ĠLibrary":6061,"ĠLGG":6062,"Ġfind":6063,"Ġfinally":6064,"ĠWT":6065,"ĠWing":6066,"ĠWarn":6067,"ĠWilcoxon":6068,"ĠWellenstein":6069,"ĠWherry":6070,"Ġplays":6071,"Ġplatel":6072,"fixed":6073,"region":6074,"Ġpool":6075,"ĠTMEs":6076,"Ġpermis":6077,"Ġperfect":6078,"Ġperhaps":6079,"Ġmediate":6080,"Ġeffici":6081,"Ġablated":6082,"Ġinhibits":6083,"Ġinhibited":6084,"Ġconsent":6085,"Ġconsorti":6086,"ĠILCs":6087,"Ġcanonical":6088,"ĠPDGFR":6089,"otype":6090,"bling":6091,"black":6092,"Ġmultifocal":6093,"toire":6094,"proximately":6095,"projects":6096,"proliferative":6097,"Ġmolec":6098,"Ġfewer":6099,"Ġlymphoprol":6100,"handi":6101,"Ġlineage":6102,"Ġlineages":6103,"monary":6104,"Ġnone":6105,"Ġexamine":6106,"Ġcontent":6107,"Ġcontours":6108,"Ġcontaminant":6109,"Ġindicating":6110,"Ġindicative":6111,"Ġinfiltrates":6112,"FÎ±":6113,"derstanding":6114,"aject":6115,"Ġupper":6116,"icial":6117,"assed":6118,"Ġcontrary":6119,"Ġcontrasting":6120,"iah":6121,"Ġvaries":6122,"Aspirin":6123,"Ġ43":6124,"ĠOlymp":6125,"Ġparadox":6126,"Ġparaffin":6127,"Ġovercomes":6128,"Ġapplic":6129,"Ġapoptotic":6130,"Ġdetect":6131,"Ġproduced":6132,"Ġ523":6133,"Ġ531":6134,"umann":6135,"Ġdeficient":6136,"ught":6137,"Ġambig":6138,"ortlever":6139,"Ġreflec":6140,"geR":6141,"mstr":6142,"msigdb":6143,"Ġintravasation":6144,"Ġyou":6145,"Ġpressure":6146,"Ġdownregul":6147,"Ġmultiplex":6148,"Albreng":6149,"RNAs":6150,"Ġsevere":6151,"Ġseminal":6152,"Ġremained":6153,"ĠTMBhigh":6154,"Ġcharacterise":6155,"Ġcharacterising":6156,"Ġidentifies":6157,"Ġdestruc":6158,"Ġcolleag":6159,"Ġtrim":6160,"Ġtrain":6161,"Ġtrue":6162,"Ġtrade":6163,"Ġtrait":6164,"Ġtraject":6165,"Ġligates":6166,"Ġdiscovered":6167,"Ġdiscern":6168,"ube":6169,"usters":6170,"Ġacces":6171,"Ġeffectors":6172,"Ġregulated":6173,"Ġregulations":6174,"Ġnumbers":6175,"Ġextends":6176,"Ġrelies":6177,"0001":6178,"Ġcarcinos":6179,"Ġcarcinogen":6180,"Ġcontributing":6181,"Ġbenefits":6182,"Ġextravasation":6183,"Ġextracting":6184,"133":6185,"ĠVS":6186,"Ġconfoun":6187,"Ġconflic":6188,"Ġimportantly":6189,"Ġexperiment":6190,"104":6191,"ĠUCEC":6192,"Ġarg":6193,"Ġarte":6194,"Ġarray":6195,"Ġheterozy":6196,"Ġhypotheses":6197,"Ġhypothesise":6198,"Ġpackages":6199,"Ġdivergence":6200,"Ġbases":6201,"ĠPTIlowTIShigh":6202,"Ġgenerates":6203,"Ġadvent":6204,"Ġappropri":6205,"Ġtimes":6206,"Ġtiming":6207,"Ġinteresting":6208,"Ġbinomial":6209,"Ġdirectional":6210,"Ġrecapit":6211,"tander":6212,"ĠNSCLCs":6213,"ĠĠĠĠĠĠĠĠĠĠĠĠĠĠĠĠĊ":6214,"Ġranged":6215,"Ġcurve":6216,"Ġcurves":6217,"Ġnodal":6218,"Ġundergo":6219,"Ġundergrad":6220,"Ġunderwent":6221,"Ġunderlying":6222,"Ġendocrine":6223,"haemat":6224,"haham":6225,"poses":6226,"Ġlocalised":6227,"Ġrequires":6228,"Ġpositions":6229,"Ġdetermined":6230,"114":6231,"IFNghigh":6232,"McGranahan":6233,"McGrail":6234,"McLane":6235,"Ġmetabolomic":6236,"Ġmetabolite":6237,"Ġutilised":6238,"Anti":6239,"Anagnos":6240,"Analysing":6241,"Ġescape":6242,"Ġespecially":6243,"Ġopen":6244,"Ġoptions":6245,"Ġopposed":6246,"Ġleast":6247,"lecting":6248,"Ġplotted":6249,"Ġplotting":6250,"Once":6251,"maf":6252,"Ġavoid":6253,"Ġauthors":6254,"Ġautoimmune":6255,"Ġcentre":6256,"Ġpriority":6257,"ordable":6258,"Ġdysplas":6259,"Ġdysregulation":6260,"Ġlacking":6261,"ĠChiossone":6262,"Ġconvert":6263,"Ġincludes":6264,"cribed":6265,"Ġmaint":6266,"plicates":6267,"defined":6268,"oinformatics":6269,"antigens":6270,"747":6271,"Ġepid":6272,"Ġfrequency":6273,"Ġprovided":6274,"pleton":6275,"pletely":6276,"ĠNFKB":6277,"Ġgrey":6278,"Ġdescribe":6279,"Ġdescribes":6280,"Ġcollagen":6281,"CAN":6282,"CAFs":6283,"ieve":6284,"ietic":6285,"Ġillum":6286,"ondrial":6287,"Ġsized":6288,"Ġfitness":6289,"Ġfacility":6290,"Ġfocused":6291,"Ġexclude":6292,"Ġreturn":6293,"Ġimply":6294,"Ġimpair":6295,"Ġimpairs":6296,"Ġ1986":6297,"Ġ1983":6298,"Ġcoefficient":6299,"Ġcentrifuged":6300,"Ġantagonised":6301,"Ġantagonism":6302,"ĠJAK":6303,"Ġsynerg":6304,"Ġstimulatory":6305,"Ġstimulates":6306,"Ġstimulating":6307,"Ġfourth":6308,"Ġfiles":6309,"Ġnovo":6310,"Ġreveals":6311,"ĠIDs":6312,"Ġsupported":6313,"Ġdiscovering":6314,"Ġdiscoveries":6315,"Ġestimated":6316,"Ġestimate":6317,"Ġchemokine":6318,"Chiossone":6319,"Ġtechnology":6320,"Ġcounterpar":6321,"Ġwidening":6322,"ishn":6323,"Ġdriving":6324,"Ġdampen":6325,"responder":6326,"responsive":6327,"ĠThese":6328,"Ġrepresented":6329,"Ġrepresentative":6330,"tributed":6331,"Ġinduces":6332,"Ġcomprised":6333,"ĠExpression":6334,"Ġsuppressor":6335,"Ġsuppressed":6336,"Ġrecruiting":6337,"Ġleukaem":6338,"eylan":6339,"Ġ600":6340,"Ġ656":6341,"Ġcorrespon":6342,"Ġcorrec":6343,"Ġcopyright":6344,"Ġbroadly":6345,"Ġprospect":6346,"Ġexpand":6347,"Ġcontexts":6348,"Ġclassification":6349,"Ġnegated":6350,"Ġratios":6351,"Ġendotheli":6352,"Ġconsidering":6353,"Understanding":6354,"Ġ800":6355,"Ġaffected":6356,"Ġafflic":6357,"Ġaffordable":6358,"Ġserum":6359,"Ġserve":6360,"Ġserial":6361,"organ":6362,"Ġmafto":6363,"Ġminor":6364,"Ġminimum":6365,"Ġfuelled":6366,"Ġinflux":6367,"Ġinfluenced":6368,"Ġrestrains":6369,"Ġrestrictive":6370,"âĢĿ)":6371,"âĢĿ,":6372,"âĢĿ),":6373,"Ġorigin":6374,"Ġengages":6375,"Ġengaging":6376,"Ġengulf":6377,"Ġvalidated":6378,"Ġvalidating":6379,"Ġcomputationally":6380,"ĠAngiogenesis":6381,"ĠAnalysis":6382,"ĠAngell":6383,"Ġoverlaps":6384,"Ġoverlapping":6385,"Ġseparate":6386,"Ġcoordinates":6387,"Project":6388,"zolias":6389,"Ġinstitute":6390,"Ġflat":6391,"Ġfully":6392,"arris":6393,"Ġbars":6394,"Ġbarcod":6395,"Ġprostate":6396,"Ġsupertype":6397,"Ġassessed":6398,"Ġscreens":6399,"ĠfeatureCounts":6400,"Ġincreasingly":6401,"Ġaccurate":6402,"Ġestablishing":6403,"Ġpublications":6404,"Ġcontexture":6405,"CPM":6406,"Lymphocytes":6407,"Shar":6408,"Shapes":6409,"Shchors":6410,"macytoid":6411,"scRNAseq":6412,"tophan":6413,"Âµm":6414,"Ġinstances":6415,"Ġemph":6416,"Ġemerg":6417,"Ġdele":6418,"Ġdelays":6419,"Ġdevised":6420,"Ġharbour":6421,"ĠTABL":6422,"Ġexposing":6423,"Ġreads":6424,"Ġreading":6425,"Ġacquired":6426,"Ġpathologist":6427,"Ġpathologies":6428,"Ġevaluable":6429,"Ġparticularly":6430,"Ġapplication":6431,"Ġphagocytosis":6432,"Ġphagocytic":6433,"centration":6434,"Ġarchitect":6435,"Ġexclusively":6436,"Ġ1997":6437,"Ġ1999":6438,"Ġstandardise":6439,"bottomed":6440,"NFKB":6441,"Nonetheless":6442,"Reads":6443,"TPM":6444,"bioinformatics":6445,"pended":6446,"Ġcreates":6447,"Ġsquares":6448,"Ġtolerate":6449,"Ġtolerant":6450,"Ġlisted":6451,"Ġclinicians":6452,"ĠWolf":6453,"ĠMELs":6454,"GSEA":6455,"Ġdepended":6456,"Ġdependency":6457,"ĠĠĠĠĠĠĠĠĠĠĠĠĠĠĠĠĠĠĠĠĠĠĠĠĠĠĠĠĠĊ":6458,"Ġcollaborators":6459,"ĠAllison":6460,"Ġpancreas":6461,"26747":6462,"Compa":6463,"Comput":6464,"Guo":6465,"Guilliam":6466,"MMotion":6467,"curve":6468,"Ġcodon":6469,"Ġpurpose":6470,"Ġpurposes":6471,"Ġowned":6472,"Ġbrisk":6473,"Ġnucleic":6474,"Ġnucleotide":6475,"ĠImmune":6476,"ĠImmunity":6477,"Ġglmer":6478,"Ġshortened":6479,"Ġmodulation":6480,"Ġsubvert":6481,"Ġsubverted":6482,"ĠBiomarker":6483,"ĠBiomedical":6484,"Ġchromatin":6485,"Ġhepatitis":6486,"ikingly":6487,"Ġpoints":6488,"Ġpartly":6489,"Ġintegrated":6490,"Ġintegrating":6491,"Ġranked":6492,"Ġelucidating":6493,"Ġprostaglandins":6494,"Ġdigitally":6495,"Ġbackgrounds":6496,"Ġhomeostatic":6497,"LRK":6498,"Meanwhile":6499,"Neutrophils":6500,"Neoantigen":6501,"TCRseq":6502,"parent":6503,"pazolias":6504,"troma":6505,"ĠedgeR":6506,"Ġslide":6507,"arcoma":6508,"Ġdiploid":6509,"Ġallowed":6510,"Ġexistence":6511,"Ġrepeated":6512,"Ġsuspended":6513,"ĠSTAR":6514,"Inflammation":6515,"ĠBaumann":6516,"ĠBRAFV":6517,"Ġstrategy":6518,"ĠGubin":6519,"Ġroutinely":6520,"Ġrobustly":6521,"Ġthanks":6522,"Ġelicits":6523,"Ġextended":6524,"Ġmanipul":6525,"Ġsimilarly":6526,"Ġskewing":6527,"Ġcategorical":6528,"Ġcategorised":6529,"Clinical":6530,"Clusters":6531,"Multivariate":6532,"Markers":6533,"chers":6534,"oyama":6535,"Ġtrends":6536,"Ġmimic":6537,"Ġmimicking":6538,"Ġ(***":6539,"Ġdoubt":6540,"Ġdoubling":6541,"Ġdilution":6542,"Ġdiluted":6543,"ascual":6544,"Ġlocation":6545,"Ġreceive":6546,"Ġreceived":6547,"Ġreproduc":6548,"ophageal":6549,"Ġorgan":6550,"Ġmoderately":6551,"Ġmodality":6552,"ĠBarplots":6553,"ĠGenome":6554,"Ġperiphery":6555,"Ġconstitutively":6556,"Ġtrigger":6557,"Ġdiscuss":6558,"Ġarmoury":6559,"Ġdirections":6560,"Ġoptimise":6561,"Ġsupernatant":6562,"Ġdelivering":6563,"Whereas":6564,"Ġhepatocytes":6565,"Ġhepatocyte":6566,"ĠconsensusTME":6567,"Across":6568,"Activated":6569,"Barry":6570,"Previous":6571,"Significantly":6572,"described":6573,"feron":6574,"iampazolias":6575,"tuned":6576,"ÃŃa":6577,"ÃŃnez":6578,"Ġpeak":6579,"Ġpeptide":6580,"Ġpeptides":6581,"Ġforeign":6582,"Ġforemost":6583,"Ġalignment":6584,"amaiah":6585,"TILs":6586,"ĠTNFÎ±":6587,"Ġsustained":6588,"Ġresource":6589,"Ġresources":6590,"Ġontology":6591,"Ġontogeny":6592,"opoietic":6593,"Ġenabled":6594,"Ġenabling":6595,"Ġdisplayed":6596,"Ġchapters":6597,"Ġsurgery":6598,"Ġsurgeries":6599,"ĠLiu":6600,"Ġoutlined":6601,"Ġchemotherapies":6602,"competent":6603,"Ġtrypsin":6604,"Ġtryptophan":6605,"Ġgeneralisability":6606,"Ġsystematically":6607,"Ġinvasion":6608,"Ġinvasive":6609,"Ġsimplistic":6610,"Greenhough":6611,"Transcript":6612,"Transcriptional":6613,"Ġprecursor":6614,"Ġprecursors":6615,")\",":6616,"12026747":6617,"DeNardo":6618,"GRCh":6619,"HNSC":6620,"IPseq":6621,"LIHC":6622,"LUSC":6623,"MEL":6624,"Molecular":6625,"Model":6626,"Quail":6627,"Statistical":6628,"Strikingly":6629,"STAT":6630,"Upregulated":6631,"signalling":6632,"subtype":6633,"Ġurgent":6634,"ĠGEO":6635,"Ġcoupled":6636,"Ġculmin":6637,"annotations":6638,"Ġpronounced":6639,"Ġinstrument":6640,"Ġeicosanoids":6641,"Ġfunding":6642,"arsheh":6643,"oulis":6644,"Ġdimin":6645,"asurement":6646,"Ġalternative":6647,"ĠPtger":6648,"Ġlabelled":6649,"Ġpropensity":6650,"activation":6651,"ĠClinical":6652,"Ġniche":6653,"Ġassembly":6654,"Ġexternal":6655,"Ġreactions":6656,"Ġreducing":6657,"Ġrelevant":6658,"Ġreasoned":6659,"tractants":6660,"Ġvarying":6661,"ĠMellor":6662,"ĠStatement":6663,"ĠSaltz":6664,"Ġadrenocortical":6665,"Ġdebate":6666,"ĠRTKs":6667,"Ġscanner":6668,"Ġcomprehensive":6669,"Ġrunning":6670,"Ġradiation":6671,"ĠBladder":6672,"ĠHaas":6673,"ĠKruskal":6674,"ĠGZMB":6675,"ĠGraphPad":6676,"Ġquadrant":6677,"Ġperturbations":6678,"Ġconscripted":6679,"Ġattenuate":6680,"Ġincompletely":6681,"Ġinconsistently":6682,"Ġeliminate":6683,"Ġremodelling":6684,"Ġsecretome":6685,"Ġmyofibroblasts":6686,"Ġmanifestation":6687,"Ġmicrosatell":6688,"Ġcommonality":6689,"Ġtimepoints":6690,"Ġexploited":6691,"Ġinvolvement":6692,"Ġhistorical":6693,"ĠCharles":6694,"Ġchemoattractants":6695,"Ġequivalent":6696,"Ġgranted":6697,"Ġgradually":6698,"Ġcircumvent":6699,"Ġembedded":6700,"Ġglioblastoma":6701,"Ġphosphoproteins":6702,"Ġdiagnosis":6703,"Multiple":6704,"Ġpersonalised":6705,"Ġgranulocytes":6706,"Ġincorporate":6707,"Ġanticipated":6708,"Ġmagnification":6709,"Ġsusceptible":6710,"-/-":6711,"Amidst":6712,"Both":6713,"Campbell":6714,"Circulating":6715,"CoxPH":6716,"Dvorak":6717,"Dannenberg":6718,"Feldman":6719,"Goroff":6720,"Germain":6721,"GarcÃŃa":6722,"Homo":6723,"Hakeem":6724,"Lee":6725,"Lawrence":6726,"Myeloid":6727,"MTAB":6728,"MartÃŃnez":6729,"Numerous":6730,"Newman":6731,"PhenoScore":6732,"Platelets":6733,"Ramilowski":6734,"Rizvi":6735,"Smith":6736,"Sparmann":6737,"Taube":6738,"Thermo":6739,"Topalian":6740,"Templeton":6741,"Ultimately":6742,"Whilst":6743,"Wallis":6744,"Zaretsky":6745,"baramaiah":6746,"bbsrc":6747,"cistarget":6748,"canonical":6749,"detection":6750,"divided":6751,"floxed":6752,"fastqc":6753,"gtf":6754,"gosity":6755,"noise":6756,"olytic":6757,"selective":6758,"vascularisation":6759,"âįº":6760,"Ġhence":6761,"Ġerrors":6762,"Ġaround":6763,"Ġachieve":6764,"Ġtertiary":6765,"Ġtightly":6766,"receptor":6767,"Ġcelecox":6768,"Ġcourse":6769,"Ġcaveat":6770,"Ġcervical":6771,"Ġcriteria":6772,"ennequart":6773,"Ġsitu":6774,"Ġsymbols":6775,"Ġsearched":6776,"Ġpulmonary":6777,"Ġpowered":6778,"Ġpapill":6779,"Ġoesophageal":6780,"Ġovarian":6781,"Ġinsertions":6782,"itudinal":6783,"itochondrial":6784,"Ġmacro":6785,"Ġmachine":6786,"Ġmargin":6787,"Ġmixed":6788,"Ġmortality":6789,"Ġfashion":6790,"Ġfluorescent":6791,"Ġdogma":6792,"resistant":6793,"Ġbromodomain":6794,"Ġbystander":6795,"Ġbypass":6796,"ĠPeggs":6797,"Ġlenvatinib":6798,"Ġthird":6799,"Ġthyroid":6800,"Ġhurdle":6801,"Ġhappening":6802,"Ġhijack":6803,"Ġhotsp":6804,"Ġhybrid":6805,"Ġprogenitors":6806,"Ġproblem":6807,"ĠChange":6808,"ĠCheckmate":6809,"ĠType":6810,"ĠTSSs":6811,"ĠTeijeira":6812,"Ġrepertoire":6813,"Ġrecombinant":6814,"Ġinfectious":6815,"Ġtumourigenesis":6816,"Ġsufficient":6817,"romboxane":6818,"Ġresearchers":6819,"Ġresemble":6820,"Ġvigorously":6821,"adjacent":6822,"Ġcommercial":6823,"ĠMurciano":6824,"Ġclockwise":6825,"Ġorchestrate":6826,"ĠSavill":6827,"ĠShannon":6828,"ĠSubbaramaiah":6829,"ĠShalapour":6830,"ĠSwanton":6831,"ĠSTRING":6832,"ĠSzczerba":6833,"oggetto":6834,"Ġdeployed":6835,"Ġunravel":6836,"Ġunwanted":6837,"Ġunknown":6838,"Ġendeavoured":6839,"Initially":6840,"Increasing":6841,"ĠRepresentative":6842,"Ġdispersion":6843,"Ġnephrectomy":6844,"Ġrationale":6845,"Ġsubmitted":6846,"ĠDESeq":6847,"ĠAbdel":6848,"ĠEduardo":6849,"ĠEppendorfs":6850,"ĠFastQC":6851,"ĠFindMarkers":6852,"ĠGTPase":6853,"ĠWarner":6854,"Ġperfectly":6855,"Ġefficiently":6856,"Ġmolecule":6857,"Ġlymphoproliferative":6858,"ĠOlympus":6859,"Ġambiguous":6860,"Ġreflects":6861,"Albrengues":6862,"Ġdestruction":6863,"Ġcolleagues":6864,"Ġtraits":6865,"Ġdiscernible":6866,"Ġheterozygosity":6867,"Ġappropriate":6868,"Ġundergraduate":6869,"hahamatdar":6870,"Anagnostou":6871,"Ġcounterparts":6872,"Ġ6560":6873,"Ġendothelium":6874,"Ġmaftools":6875,"Ġharbouring":6876,"ĠTABLES":6877,"Ġarchitecture":6878,"Compared":6879,"Computational":6880,"Guilliams":6881,"Ġmicrosatellite":6882,"Ġcelecoxib":6883}